<s>	0
<pad>	0
</s>	0
<unk>	0
,	-3.08532
▁"	-3.3918
▁the	-3.85168
▁","	-4.1005
.	-4.10406
।	-4.44476
▁of	-4.53581
s	-4.68068
▁to	-4.69551
को	-4.71813
▁and	-4.83914
मा	-4.95511
▁in	-5.00208
▁र	-5.07879
▁	-5.16008
▁a	-5.1804
ले	-5.23877
का	-5.36628
▁is	-5.55651
▁छ	-5.57855
'	-5.58481
-	-5.58555
लाई	-5.78015
▁that	-5.81255
▁for	-5.92517
)	-5.96025
▁be	-5.99087
The	-6.08399
▁गर्न	-6.16973
▁has	-6.20154
▁पनि	-6.21149
▁on	-6.21458
▁was	-6.21581
बाट	-6.21976
▁not	-6.26452
▁(	-6.27518
▁by	-6.33537
▁with	-6.38067
▁have	-6.39688
▁it	-6.46312
▁as	-6.472
▁from	-6.48789
▁are	-6.49204
▁said	-6.51215
▁गर्ने	-6.53634
:	-6.54328
▁""	-6.54668
ko	-6.58121
▁छन्	-6.58726
ing	-6.59146
हरू	-6.61348
t	-6.61794
▁will	-6.62235
ma	-6.63446
▁हो	-6.63541
ka	-6.71446
▁लागि	-6.71904
▁this	-6.72253
▁at	-6.73537
▁थियो	-6.7397
▁or	-6.74801
ed	-6.76234
▁भएको	-6.76376
र	-6.76637
▁वा	-6.76899
▁he	-6.78954
न	-6.80341
सँग	-6.80849
▁been	-6.80869
le	-6.83365
▁'	-6.88319
d	-6.90951
▁his	-6.93898
▁।	-6.94256
▁भने	-6.94739
▁who	-6.95037
▁also	-6.95145
▁आफ्नो	-6.95809
▁गरेको	-6.97511
ी	-6.97987
म	-6.99587
▁Nepal	-7.01655
▁-	-7.02627
क	-7.02785
▁I	-7.03047
▁एक	-7.04461
?	-7.04726
▁you	-7.0736
a	-7.0741
▁यो	-7.08556
▁an	-7.09622
▁थिए	-7.14913
▁तथा	-7.14952
▁गरिएको	-7.23559
▁were	-7.26015
""	-7.29774
▁म	-7.29885
स	-7.30959
▁रूपमा	-7.3101
▁people	-7.32153
▁their	-7.32895
lai	-7.33164
▁they	-7.34062
In	-7.35211
तर	-7.36209
▁नै	-7.37868
▁which	-7.38033
▁all	-7.38749
▁but	-7.39504
▁छैन	-7.39524
▁had	-7.39863
▁there	-7.40036
,""	-7.40552
na	-7.4168
▁after	-7.428
▁काम	-7.43048
यो	-7.44335
▁हुने	-7.44507
▁मा	-7.44608
▁गरे	-7.44679
▁can	-7.44688
▁भन्ने	-7.45942
▁"(	-7.46155
▁government	-7.47041
ल	-7.47585
▁time	-7.47948
▁shall	-7.48809
I	-7.49218
▁one	-7.49391
▁तर	-7.49622
▁कुनै	-7.50711
ly	-7.51107
े	-7.52767
i	-7.53219
ा	-7.53422
▁केही	-7.53506
e	-7.54061
He	-7.54376
It	-7.55001
▁मात्र	-7.56042
देखि	-7.56731
▁’	-7.56753
er	-7.56925
भन्दा	-7.57215
n	-7.57942
▁other	-7.58115
▁को	-7.58426
;	-7.58674
▁हुन	-7.59218
m	-7.59316
सम्म	-7.60672
▁about	-7.6077
ता	-7.61875
▁more	-7.61887
▁s	-7.62195
A	-7.62502
y	-7.62946
हरूले	-7.63335
▁should	-7.63532
▁such	-7.64607
▁we	-7.64697
▁सबै	-7.65071
द्वारा	-7.65153
bata	-7.65591
▁”	-7.66006
▁नेपाल	-7.66805
▁धेरै	-7.68154
▁त	-7.68197
▁only	-7.69904
▁कुरा	-7.70179
▁गरेका	-7.70239
पछि	-7.70246
▁its	-7.70973
▁no	-7.71156
कै	-7.7174
▁गरी	-7.72006
▁","""	-7.72612
▁अ	-7.72822
हरूको	-7.73563
al	-7.74106
▁हुन्छ	-7.7433
हरु	-7.74485
▁any	-7.74499
▁बढी	-7.75396
▁दिन	-7.75873
▁कि	-7.7644
▁if	-7.7647
▁two	-7.77044
प	-7.77835
▁out	-7.77856
▁के	-7.78194
ै	-7.78791
k	-7.78991
▁when	-7.79385
in	-7.7977
▁made	-7.79775
re	-7.80038
त	-7.80074
की	-7.80735
▁"""	-7.81445
ta	-7.81634
But	-7.81778
▁न	-7.8212
▁रहेको	-7.82135
▁them	-7.82556
ु	-7.82594
▁भयो	-7.8264
ne	-7.83863
▁than	-7.83876
ज	-7.83955
▁अनि	-7.85494
▁A	-7.85657
▁यस	-7.85725
▁country	-7.85831
▁him	-7.85859
▁would	-7.86054
▁do	-7.86522
▁प्रयोग	-7.87622
▁गर्दै	-7.87798
▁“	-7.8787
कालागि	-7.8814
▁अन्य	-7.88392
▁भए	-7.88402
१	-7.89024
▁up	-7.89745
▁दुई	-7.90487
▁years	-7.90577
▁year	-7.90621
S	-7.91308
/	-7.9209
ब	-7.93279
▁like	-7.93321
▁नेपाली	-7.93661
ग	-7.94326
▁विकास	-7.94807
▁गर्नुहोस्	-7.95021
▁भन्नुभयो	-7.95494
▁work	-7.96051
▁गर्नु	-7.96059
▁new	-7.96682
ki	-7.96841
▁so	-7.97326
▁प्राप्त	-7.99315
▁first	-7.99437
▁her	-8.00218
o	-8.00226
▁may	-8.00531
▁–	-8.00574
▁your	-8.0084
This	-8.01015
r	-8.01194
ँ	-8.01532
माथि	-8.02304
▁वर्ष	-8.0274
▁त्यो	-8.02978
ला	-8.03081
▁some	-8.03659
▁गर्दा	-8.0483
an	-8.05354
▁भएका	-8.0566
छ	-8.05782
▁नयाँ	-8.05905
man	-8.0603
▁एउटा	-8.06038
ं	-8.07102
▁my	-8.07286
▁over	-8.07336
ट	-8.07985
हरूलाई	-8.08003
▁The	-8.08506
▁कारण	-8.08657
बारे	-8.09085
▁under	-8.09316
ra	-8.10033
ि	-8.1012
▁सो	-8.10353
▁सेवा	-8.10449
▁into	-8.10606
▁गर्दछ	-8.11137
▁उनले	-8.11285
u	-8.11429
ti	-8.11821
य	-8.12287
▁हुनेछ	-8.12481
▁बताए	-8.12776
▁now	-8.1322
▁me	-8.13571
▁स	-8.13712
ni	-8.15482
la	-8.15532
▁Nepali	-8.15995
▁ठूलो	-8.16088
व	-8.16111
▁make	-8.16172
We	-8.16211
२	-8.1624
sa	-8.16552
–	-8.1683
▁हामी	-8.17819
▁could	-8.17965
▁आवश्यक	-8.17987
▁even	-8.18223
द	-8.18321
es	-8.18383
h	-8.18668
da	-8.18674
di	-8.18793
▁कार्य	-8.19662
्ने	-8.19959
haru	-8.20236
ना	-8.20554
sanga	-8.21169
ya	-8.21463
▁our	-8.21762
सँगै	-8.2232
th	-8.226
pa	-8.22756
ड	-8.22841
च	-8.23124
▁प्रमुख	-8.23355
मै	-8.23452
There	-8.24243
▁what	-8.24353
▁हुन्	-8.24444
If	-8.24506
▁against	-8.24969
रा	-8.25317
री	-8.25658
ri	-8.25793
▁S	-8.26017
▁ः	-8.26255
▁she	-8.26848
▁did	-8.27016
्न	-8.27064
p	-8.27131
!	-8.27427
▁उनी	-8.27686
▁come	-8.27872
▁निर्माण	-8.28257
ख	-8.28355
▁many	-8.292
▁आ	-8.29317
▁development	-8.29615
▁three	-8.29795
kai	-8.29854
▁पूर्व	-8.2988
▁Minister	-8.31187
▁वि	-8.31298
हरूमा	-8.31328
▁घर	-8.31443
▁बमोजिम	-8.32597
g	-8.32702
▁same	-8.3335
▁these	-8.33409
ह	-8.33578
▁India	-8.33764
▁१	-8.33854
▁/	-8.34177
▁मेरो	-8.34328
▁1	-8.34335
▁party	-8.34531
▁day	-8.3482
b	-8.35025
वा	-8.3509
▁last	-8.3519
▁गरेर	-8.35301
▁through	-8.35358
लगायत	-8.36211
▁समय	-8.3631
▁5	-8.36532
बीच	-8.36814
ः	-8.37394
न्	-8.38181
▁योजना	-8.38288
.""	-8.38462
ित	-8.39061
l	-8.39474
प्रति	-8.39611
▁take	-8.39666
▁तीन	-8.39692
भ	-8.39736
▁while	-8.39813
इ	-8.39837
िक	-8.39844
▁being	-8.40061
▁सु	-8.40214
मध्ये	-8.40277
▁इ	-8.40385
ो	-8.40435
▁those	-8.40645
▁re	-8.41039
▁गर्यो	-8.41678
▁before	-8.41701
▁अहिले	-8.42058
▁सुरु	-8.42313
▁very	-8.42387
ने	-8.42797
de	-8.42818
▁ती	-8.43252
ji	-8.43419
▁राज्य	-8.43504
अ	-8.4389
▁go	-8.4394
▁स्थानीय	-8.44001
▁होइन	-8.44336
विरुद्ध	-8.44539
यस	-8.44846
▁says	-8.45125
vi	-8.45427
▁नाम	-8.4552
▁public	-8.46047
▁land	-8.4634
▁व्यवस्था	-8.46617
▁between	-8.4673
स्	-8.47112
▁सञ्चालन	-8.47206
▁percent	-8.47298
ro	-8.47344
्	-8.47456
▁प	-8.47469
के	-8.47849
C	-8.48208
▁अधिकार	-8.48278
▁राम्रो	-8.48416
▁place	-8.48474
ेर	-8.48498
li	-8.4859
▁निर्णय	-8.48734
ja	-8.49087
भित्र	-8.49162
▁पर्ने	-8.49229
▁‘	-8.49535
According	-8.49587
▁because	-8.49893
▁क्षेत्रमा	-8.49949
▁मैले	-8.50228
▁जिल्ला	-8.50445
ba	-8.5057
▁अर्को	-8.50584
dekhi	-8.5064
▁प्रतिशत	-8.50967
▁name	-8.51011
c	-8.51028
bi	-8.5119
▁हाम्रो	-8.5122
▁समेत	-8.51312
▁political	-8.51702
▁person	-8.51921
▁राष्ट्रिय	-8.52073
te	-8.52298
pur	-8.52656
▁सरकारले	-8.52965
▁का	-8.53296
lo	-8.53378
▁state	-8.53393
▁where	-8.53445
▁","“	-8.53453
to	-8.53456
▁सहयोग	-8.53604
▁मलाई	-8.53841
▁अध्यक्ष	-8.53903
si	-8.53985
▁ले	-8.53985
▁विभिन्न	-8.54422
३	-8.54454
wa	-8.54634
तर्फ	-8.54782
▁world	-8.54808
▁way	-8.54975
▁कम	-8.55067
▁due	-8.55582
ar	-8.55632
▁बि	-8.55851
▁local	-8.55901
se	-8.55904
▁district	-8.56299
▁पहिलो	-8.56557
जस्तो	-8.56843
▁क	-8.56852
▁आर्थिक	-8.57172
▁ए	-8.57274
▁राजनीतिक	-8.57532
▁उहाँले	-8.58247
▁3	-8.58261
pra	-8.58668
▁आएको	-8.59078
▁get	-8.59419
ers	-8.59432
फ	-8.59452
▁million	-8.5951
▁good	-8.59721
ha	-8.59991
▁जसले	-8.60349
▁say	-8.60385
f	-8.60462
ली	-8.60578
▁उत्पादन	-8.60629
हरुको	-8.60932
▁कार्यक्रम	-8.60953
▁C	-8.6121
सा	-8.61283
श	-8.61294
▁दिने	-8.61345
▁during	-8.61426
▁सि	-8.61692
▁used	-8.61695
▁ओ	-8.61793
ेको	-8.6232
▁well	-8.62365
▁including	-8.62433
▁found	-8.62511
िन	-8.62658
िएको	-8.6286
▁सक्छ	-8.63182
▁house	-8.63222
सी	-8.63406
They	-8.63558
तिर	-8.63637
स्थित	-8.6376
▁ब	-8.63966
ch	-8.63981
▁water	-8.64005
▁२	-8.64035
However	-8.64274
▁नि	-8.64291
▁रुपमा	-8.64847
▁Act	-8.64959
ga	-8.65057
After	-8.65122
▁श्री	-8.65241
▁खेल	-8.65478
▁५	-8.65612
वि	-8.65642
▁police	-8.65654
▁यी	-8.65805
▁number	-8.65965
▁meeting	-8.6607
▁उपलब्ध	-8.66283
▁came	-8.6636
रो	-8.66384
▁उनको	-8.66942
▁started	-8.66949
▁does	-8.66958
▁बन्द	-8.66961
▁area	-8.66975
▁within	-8.67032
▁Kathmandu	-8.6704
▁how	-8.67233
जस्ता	-8.67262
उ	-8.6732
samma	-8.67444
▁डलर	-8.67481
ङ	-8.67525
▁most	-8.67593
▁परिवर्तन	-8.67628
▁सक्ने	-8.67632
ए	-8.6771
▁long	-8.67915
▁days	-8.67935
▁जुन	-8.67969
डा	-8.68063
ke	-8.68211
▁women	-8.68678
▁children	-8.68737
mi	-8.68784
ती	-8.68916
▁case	-8.69044
ू	-8.69498
▁प्रयास	-8.69606
▁life	-8.69842
▁क्षेत्र	-8.69966
▁छु	-8.7003
सहित	-8.70064
▁समस्या	-8.70103
prati	-8.70131
▁जारी	-8.70162
जी	-8.70556
For	-8.7066
उनले	-8.70723
san	-8.70928
बा	-8.71268
sh	-8.71297
▁यसको	-8.71541
▁then	-8.71543
raj	-8.71547
kar	-8.71609
▁माग	-8.71632
▁called	-8.71775
समेत	-8.71784
▁U	-8.71813
...	-8.7185
▁power	-8.71865
▁जानकारी	-8.71891
नी	-8.71943
▁program	-8.72269
▁प्रस्ताव	-8.72348
लो	-8.72552
▁Sub	-8.72707
▁उच्च	-8.73321
▁मन	-8.73382
▁without	-8.73528
▁home	-8.73619
do	-8.73644
ाउने	-8.73701
B	-8.73827
▁प्र	-8.73869
▁ऐन	-8.7395
▁system	-8.73954
▁सम्बन्धित	-8.74194
▁विश्वास	-8.74341
wi	-8.74469
▁market	-8.74627
थ	-8.74726
or	-8.74775
▁given	-8.75304
un	-8.75426
▁प्रहरी	-8.7559
▁त्यस	-8.75591
bhanda	-8.75817
▁use	-8.75878
▁taken	-8.75947
pi	-8.75956
▁अमेरिकी	-8.75968
▁पहिले	-8.76006
cha	-8.76064
।""	-8.762
▁(1)	-8.76423
िङ	-8.76521
su	-8.76809
me	-8.76825
▁service	-8.7702
ओ	-8.77164
▁स्वास्थ्य	-8.77274
▁सुरक्षा	-8.77926
िने	-8.78296
जा	-8.78336
chha	-8.78774
या	-8.78801
▁become	-8.79015
ई	-8.79126
▁man	-8.79226
▁de	-8.7923
▁Rs	-8.79299
राज	-8.79384
▁सदस्य	-8.79445
▁३	-8.79499
हामी	-8.79641
▁रु	-8.79673
▁चार	-8.79844
go	-8.80018
▁प्रत्येक	-8.80025
▁us	-8.80256
▁here	-8.80314
▁सबैभन्दा	-8.80466
▁खर्च	-8.80525
ौ	-8.80729
▁t	-8.80785
▁जीवन	-8.80849
mo	-8.81068
गत	-8.81232
दा	-8.81401
▁पर्छ	-8.81458
▁सरकार	-8.81576
▁सूचना	-8.81607
nu	-8.81656
४	-8.81703
▁another	-8.81774
▁थप	-8.81981
▁office	-8.8207
▁team	-8.82216
▁different	-8.82257
▁much	-8.82299
▁security	-8.8234
▁back	-8.82689
mai	-8.82723
नि	-8.82813
▁parties	-8.82831
▁four	-8.82901
▁level	-8.82994
%	-8.8305
en	-8.83082
आ	-8.83145
ve	-8.83264
▁ल	-8.83457
And	-8.8346
D	-8.83721
▁ह	-8.83866
▁situation	-8.83951
T	-8.83968
▁company	-8.84024
▁छौं	-8.84033
To	-8.84342
▁विशेष	-8.84611
▁Committee	-8.84632
▁जो	-8.84639
▁तिनीहरू	-8.84654
्यो	-8.84662
▁महिला	-8.85065
अनुसार	-8.85149
▁मानिसहरू	-8.85268
बाहेक	-8.8527
▁सार्वजनिक	-8.85305
▁down	-8.85405
▁घोषणा	-8.85594
▁भाग	-8.85726
▁both	-8.85756
be	-8.85867
▁right	-8.85994
▁मूल्य	-8.86032
▁E	-8.86191
▁सन्	-8.86287
▁अनुसार	-8.86371
yo	-8.86402
▁set	-8.86618
ाउन	-8.86621
▁ग	-8.86675
लगायतका	-8.86708
▁२०	-8.86759
▁pursuan	-8.8687
▁want	-8.86992
▁आफ्ना	-8.87053
▁body	-8.87229
▁own	-8.87554
▁कर	-8.8769
on	-8.87726
रे	-8.87779
As	-8.87841
▁त्यस्तो	-8.87847
▁five	-8.87862
▁१०	-8.87918
▁just	-8.87954
▁रकम	-8.88005
▁जन	-8.88027
▁know	-8.88072
▁शक्ति	-8.88074
▁"“	-8.88142
▁प्रति	-8.88235
▁दिए	-8.88311
▁अब	-8.88383
▁king	-8.88615
▁need	-8.8866
घ	-8.88783
▁गरिरहेका	-8.88832
सम्बन्धी	-8.88844
▁see	-8.88864
lu	-8.88908
▁committee	-8.88968
▁--	-8.89018
पा	-8.89156
▁per	-8.89208
▁भनेर	-8.89253
▁पटक	-8.89265
har	-8.89333
▁information	-8.89336
▁व्यक्ति	-8.89709
▁बाहिर	-8.90033
बि	-8.9033
▁national	-8.9055
▁God	-8.90623
ियो	-8.9069
▁अनुसन्धान	-8.90753
hi	-8.90761
्नु	-8.9092
डी	-8.90938
▁give	-8.91003
▁यसलाई	-8.91026
▁संयुक्त	-8.91283
▁money	-8.91298
▁भन्छन्	-8.91537
▁बजार	-8.91589
▁देखिन्छ	-8.91678
▁दिएको	-8.91745
उनी	-8.91841
▁पानी	-8.9198
▁period	-8.92043
▁president	-8.92168
▁Prime	-8.92295
जस्तै	-8.92306
ment	-8.92329
▁जस्तै	-8.92403
▁मुख्य	-8.92623
G	-8.92664
▁गर्नेछ	-8.92723
▁नीति	-8.92811
▁ज	-8.92939
ाई	-8.93023
पुर	-8.93072
▁कानुन	-8.93093
र्	-8.93164
मार्फत	-8.93266
▁business	-8.93375
▁अवस्था	-8.93481
▁high	-8.93494
▁countries	-8.93501
सो	-8.93537
▁लिन	-8.93717
▁नेता	-8.93756
▁कसरी	-8.93892
▁पर्नेछ	-8.93946
▁रहेका	-8.93951
▁थाहा	-8.93953
j	-8.94009
▁since	-8.94225
▁स्थापना	-8.94241
▁यस्तो	-8.94276
▁every	-8.94301
▁foreign	-8.9433
▁सरकारी	-8.94468
बहादुर	-8.94471
५	-8.94824
ौं	-8.94843
▁hand	-8.94884
▁शिक्षा	-8.94978
▁भन्दा	-8.94979
mathi	-8.95077
▁बनाउन	-8.95245
sangai	-8.95295
P	-8.95354
bha	-8.95355
्दा	-8.95369
▁constitution	-8.95392
▁लगानी	-8.95622
▁health	-8.95706
war	-8.95887
▁various	-8.95999
▁थिएन	-8.96007
▁कार्यालय	-8.96033
▁सकिन्छ	-8.96034
▁पूरा	-8.96233
▁मु	-8.96308
▁राजा	-8.96498
्दै	-8.96546
ku	-8.96589
▁family	-8.96703
▁गर	-8.9705
On	-8.97307
▁Congress	-8.97502
सित	-8.97604
▁अलि	-8.97681
So	-8.97712
▁तयार	-8.97756
bar	-8.97759
chi	-8.97877
▁हजार	-8.97943
At	-8.98082
▁still	-8.98093
▁according	-8.98097
the	-8.9812
▁end	-8.98447
▁order	-8.98495
ति	-8.98516
▁प्रतिवेदन	-8.98519
▁help	-8.98549
▁बा	-8.98688
हरूका	-8.98724
▁going	-8.98742
▁leaders	-8.98827
▁T	-8.98928
▁2	-8.98977
▁सुन	-8.99081
▁Ma	-8.99212
हरुले	-8.99268
▁went	-8.99362
▁अझै	-8.99377
ation	-8.99512
z	-8.99666
▁या	-8.99783
am	-8.99804
▁जे	-8.99863
▁second	-8.99944
▁part	-8.99953
▁किन	-9.0005
▁नेपालको	-9.00167
▁group	-9.00285
▁19	-9.00304
va	-9.00452
ram	-9.00498
▁told	-9.00582
सु	-9.00685
▁४	-9.00785
haruko	-9.00916
▁अन्तर्राष्ट्रिय	-9.00961
▁village	-9.00989
▁Indian	-9.0117
ण	-9.01247
▁विश्व	-9.01397
▁१९	-9.0163
प्र	-9.01643
▁व्यवस्थापन	-9.01659
▁Government	-9.01705
▁स्थान	-9.02027
▁दुवै	-9.0204
▁बिक्री	-9.02134
w	-9.02215
When	-9.0227
▁New	-9.02403
▁city	-9.02433
son	-9.02494
▁हामीले	-9.02535
सि	-9.02554
म्	-9.0272
▁China	-9.02761
▁पूर्ण	-9.02765
▁Mr	-9.02905
▁Bahadur	-9.02928
▁un	-9.03029
▁saying	-9.03035
्स	-9.03086
▁च	-9.03117
▁around	-9.03135
You	-9.03172
up	-9.03358
▁आदेश	-9.03498
▁ख	-9.03523
▁भइरहेको	-9.03695
▁उ	-9.03757
▁left	-9.03782
▁road	-9.03807
▁पार्टी	-9.03825
▁डा	-9.03874
छन्	-9.03999
’	-9.04054
▁गरिरहेको	-9.04119
▁done	-9.0415
▁लक्ष्य	-9.04333
▁सुधार	-9.0439
बी	-9.04412
gar	-9.04472
▁things	-9.04503
▁working	-9.04641
kha	-9.04731
bo	-9.04838
▁P	-9.04996
du	-9.04997
▁process	-9.05026
मात्र	-9.05085
▁उनलाई	-9.05088
▁पाँच	-9.05122
▁हुनु	-9.05132
▁son	-9.05207
▁समिति	-9.05258
wan	-9.05284
▁सं	-9.05515
▁राष्ट्र	-9.05548
▁six	-9.05591
▁सिर्जना	-9.05686
bare	-9.05737
▁don	-9.05785
ry	-9.05799
▁कु	-9.05826
रु	-9.05869
x	-9.05895
▁today	-9.06013
▁months	-9.06048
▁Sa	-9.06072
▁President	-9.06134
▁Maoists	-9.0615
el	-9.06206
”	-9.06348
▁दर्ता	-9.06437
▁अध्ययन	-9.06495
▁त्यहाँ	-9.0668
▁अवस्थामा	-9.06933
no	-9.07013
लि	-9.07284
▁school	-9.07357
▁social	-9.07363
▁report	-9.07442
▁लामो	-9.0758
टी	-9.07736
able	-9.07768
▁making	-9.07821
वादी	-9.07846
▁again	-9.08117
हरूसँग	-9.08258
▁B	-9.08305
▁held	-9.08559
▁support	-9.08611
fa	-9.08697
▁देश	-9.08843
pe	-9.08993
रि	-9.09157
टा	-9.09172
▁गर्नुभयो	-9.09204
▁यसले	-9.09363
▁necessary	-9.09372
▁general	-9.09465
▁अर्थ	-9.09473
यी	-9.09548
▁सडक	-9.09605
sar	-9.09675
▁जान	-9.09737
▁बस	-9.09872
▁Office	-9.09938
he	-9.09944
ju	-9.09957
▁cannot	-9.10099
▁गत	-9.10171
▁६	-9.10222
▁समयमा	-9.10246
▁आएका	-9.10545
एक	-9.10589
▁K	-9.10613
▁स्पष्ट	-9.10697
ru	-9.10759
▁विदेशी	-9.10778
▁भारतीय	-9.10944
ध	-9.11011
▁current	-9.11013
ाइ	-9.11143
हा	-9.1116
▁economic	-9.11184
िएका	-9.11234
संग	-9.11263
ter	-9.11405
so	-9.11407
▁able	-9.11434
▁open	-9.11463
▁०००	-9.1147
▁बाटो	-9.1154
▁मानिस	-9.11697
▁अन्तिम	-9.11714
▁sector	-9.11764
▁उप	-9.11783
▁उनीहरूले	-9.11787
▁past	-9.11796
▁सामाजिक	-9.11929
▁game	-9.11942
▁issue	-9.11998
▁उत्तर	-9.12103
▁G	-9.12148
▁अघि	-9.12172
ेका	-9.12257
▁must	-9.12257
▁rights	-9.1232
▁law	-9.12544
▁United	-9.12649
▁received	-9.12733
▁National	-9.12779
नै	-9.12844
▁बैंक	-9.12907
▁प्रधानमन्त्री	-9.12994
▁क्रममा	-9.13142
▁D	-9.13158
▁main	-9.13177
▁men	-9.13433
▁means	-9.13465
▁सुविधा	-9.13473
▁आयोजना	-9.13505
▁change	-9.13655
She	-9.13677
▁भएपछि	-9.13683
▁आज	-9.1375
मैले	-9.13751
वाद	-9.13869
com	-9.13898
▁विषय	-9.13973
What	-9.14046
▁अगाडि	-9.14096
▁ago	-9.14115
▁आफ्नै	-9.14269
▁decision	-9.14291
▁20	-9.14322
▁project	-9.14342
▁गरिनेछ	-9.1438
▁problem	-9.14412
▁पछि	-9.14498
tri	-9.14866
gi	-9.14869
▁नागरिक	-9.14891
▁नियम	-9.15065
त्यो	-9.15175
par	-9.15238
▁Yahweh	-9.15403
▁construction	-9.15408
▁अनुमति	-9.15445
ंग	-9.15451
▁प्रभाव	-9.15507
ity	-9.15508
▁He	-9.15591
▁financial	-9.15668
▁केन्द्र	-9.15707
▁each	-9.15762
jan	-9.16006
जन	-9.16183
▁10	-9.16222
Now	-9.16272
▁नेपालमा	-9.16277
▁बेला	-9.16395
▁व	-9.16529
▁far	-9.16742
▁गरिएका	-9.1684
मान	-9.16845
▁Council	-9.16892
▁Nepalese	-9.16978
▁amount	-9.16986
ur	-9.17088
▁स्थिति	-9.17167
यदि	-9.17173
▁Ministry	-9.17197
ho	-9.17221
▁policy	-9.17224
▁member	-9.17235
बाटै	-9.17267
▁next	-9.17274
F	-9.17281
्य	-9.17289
▁छैनन्	-9.17415
झ	-9.1753
sthit	-9.17559
▁हुँदा	-9.17585
▁international	-9.17617
▁old	-9.17648
▁food	-9.17684
गा	-9.17708
▁took	-9.17709
sha	-9.17795
मो	-9.17807
il	-9.17809
▁week	-9.17831
▁समूह	-9.17878
नेपाल	-9.17943
▁निम्ति	-9.1795
▁movement	-9.18057
ce	-9.18142
▁करिब	-9.1815
it	-9.18182
▁among	-9.18241
▁बल	-9.18243
▁In	-9.18409
▁सक्छन्	-9.18412
▁समावेश	-9.18529
▁जब	-9.18558
▁Development	-9.18572
▁भ	-9.18611
▁District	-9.18621
ङ्ग	-9.18751
▁फेरि	-9.18785
▁किनभने	-9.18801
ठ	-9.18806
▁राख्न	-9.18857
▁बे	-9.18865
▁provide	-9.18984
tra	-9.19073
▁संरक्षण	-9.19151
▁विचार	-9.19226
co	-9.19416
v	-9.19441
▁मन्त्री	-9.19744
▁विवरण	-9.19964
▁important	-9.20012
▁leader	-9.20164
कु	-9.20213
That	-9.20215
▁निकै	-9.20304
▁basis	-9.20342
▁4	-9.20349
dha	-9.20497
▁following	-9.20597
▁Lord	-9.20617
ness	-9.20683
▁मृत्यु	-9.20738
K	-9.20768
harule	-9.20831
dar	-9.20857
sahit	-9.20996
अन्तर्गत	-9.21021
▁seen	-9.21158
▁यहाँ	-9.21201
ीय	-9.21289
▁संविधान	-9.21325
▁Ka	-9.21359
▁think	-9.21437
maha	-9.21496
▁विषयमा	-9.2154
▁कुल	-9.21668
▁मिलियन	-9.21685
▁ला	-9.217
▁action	-9.21707
▁former	-9.21749
▁विस्तार	-9.21797
▁few	-9.22033
▁प्रदान	-9.22041
▁राष्ट्रपति	-9.22051
▁increased	-9.22059
ty	-9.22204
▁बनाउने	-9.22238
▁कर्मचारी	-9.22239
dwara	-9.22249
▁off	-9.22264
▁जाने	-9.22356
▁education	-9.22419
mar	-9.22457
year	-9.225
▁concerned	-9.2253
▁मुद्दा	-9.22605
▁भन्दै	-9.22698
▁Bank	-9.22733
▁सा	-9.22769
R	-9.22855
▁कार्यान्वयन	-9.23057
▁6	-9.23149
▁post	-9.23229
matra	-9.23306
▁भारत	-9.23373
bich	-9.23434
▁हुँदैन	-9.23528
▁द	-9.23542
▁बारेमा	-9.23553
▁छलफल	-9.23577
▁खरिद	-9.23669
▁वृद्धि	-9.23677
che	-9.23719
पी	-9.23731
eko	-9.23762
▁नेतृत्व	-9.23778
▁जि	-9.23789
ca	-9.23798
कार	-9.23899
▁गरिने	-9.23904
▁१५	-9.24073
▁increase	-9.24084
ge	-9.24277
▁पि	-9.24333
▁महा	-9.24373
▁भएर	-9.24452
▁बताउनुभयो	-9.2446
▁O	-9.24551
मे	-9.24552
▁plan	-9.24599
▁mother	-9.24614
हरुलाई	-9.2464
▁F	-9.24739
▁court	-9.24874
कर	-9.24886
▁उपदफा	-9.24995
▁सम्भावना	-9.25096
▁तिनीहरूले	-9.25126
▁माथि	-9.25149
▁प्रक्रिया	-9.25271
▁फेला	-9.25327
▁गरिन्छ	-9.25332
▁लिएर	-9.25468
▁small	-9.2552
▁माओवादी	-9.25544
▁उद्योग	-9.25588
▁great	-9.2559
६	-9.25617
▁areas	-9.2562
sam	-9.25621
▁7	-9.25624
िए	-9.25639
▁9	-9.25698
यसले	-9.25727
▁father	-9.2577
▁सम्बन्ध	-9.25843
▁members	-9.25902
▁दिनु	-9.25949
▁उल्लेख	-9.2596
▁शान्ति	-9.25993
▁present	-9.26013
▁जंगली	-9.26064
गो	-9.26097
▁सम्बन्धी	-9.26149
▁officials	-9.26317
pan	-9.26391
▁छोरा	-9.26414
▁human	-9.26424
▁put	-9.26441
▁विद्यालय	-9.26471
▁capital	-9.26584
र्स	-9.26593
त्यसैले	-9.26607
ion	-9.26673
▁lack	-9.26792
gu	-9.2689
्र	-9.26976
▁brought	-9.27076
▁Commission	-9.27153
E	-9.27258
▁special	-9.27259
७	-9.27339
▁उपचार	-9.2739
U	-9.2747
ad	-9.27495
▁already	-9.27505
▁गाउँ	-9.27576
▁जन्म	-9.27582
and	-9.27624
▁ऋण	-9.27631
▁आधारमा	-9.27745
भा	-9.27887
▁जहाँ	-9.27901
▁७	-9.27907
ाउ	-9.2791
▁से	-9.27941
नु	-9.28054
पहिलो	-9.28091
▁गएको	-9.28117
▁लि	-9.28146
pachhi	-9.28179
मी	-9.28225
ran	-9.28286
▁राम	-9.2834
भर	-9.28443
पूर्ण	-9.28505
राम	-9.28685
▁मे	-9.28697
▁दोस्रो	-9.28714
▁लाख	-9.28873
▁society	-9.28964
▁सम्झौता	-9.29056
नो	-9.29092
▁घटना	-9.29124
▁सहमति	-9.29146
▁प्रणाली	-9.29233
▁reached	-9.29578
▁समाधान	-9.29598
tu	-9.29778
टो	-9.29926
िया	-9.29943
▁वन	-9.29985
▁नियन्त्रण	-9.29987
▁ना	-9.29994
्छ	-9.30236
▁chief	-9.30261
▁हात	-9.30291
bu	-9.30362
ic	-9.30449
▁Pa	-9.30556
as	-9.30625
po	-9.30626
ling	-9.30638
▁सक्नेछ	-9.30751
▁पैसा	-9.31087
jana	-9.31118
▁possible	-9.31333
▁नभएको	-9.31364
▁show	-9.31512
▁bring	-9.31647
▁services	-9.31693
▁फाइल	-9.31757
▁Ba	-9.31848
सन्	-9.31904
nai	-9.31908
▁शहर	-9.31938
▁मान	-9.31944
▁private	-9.31976
▁सय	-9.32007
मु	-9.32087
▁file	-9.32124
▁election	-9.32224
▁night	-9.32265
▁पार्न	-9.32348
▁देखि	-9.32354
▁US	-9.32538
▁away	-9.32613
old	-9.3265
▁गर्नुपर्छ	-9.32676
▁प्रश्न	-9.32751
hu	-9.32887
ll	-9.32914
▁month	-9.32965
▁bank	-9.32971
▁अपेक्षा	-9.33097
८	-9.33196
▁move	-9.33222
▁control	-9.33251
▁गो	-9.3342
▁interest	-9.33665
▁am	-9.33697
▁युवा	-9.33929
▁students	-9.34048
▁चयन	-9.34155
▁संस्था	-9.34288
▁पो	-9.34307
tan	-9.34369
से	-9.34598
छु	-9.3462
▁lot	-9.3464
▁Re	-9.34659
नले	-9.34766
ek	-9.3486
▁लागेको	-9.34902
▁संशोधन	-9.34952
▁पा	-9.34971
▁N	-9.34976
▁प्रदर्शन	-9.34986
▁half	-9.34997
bal	-9.35016
ting	-9.35041
▁head	-9.35081
▁वर्षको	-9.35166
▁आउने	-9.35204
▁e	-9.35244
han	-9.35285
▁free	-9.35317
▁Ra	-9.35344
▁Na	-9.35452
▁M	-9.35525
▁यदि	-9.35627
ai	-9.35709
ance	-9.35773
▁परेको	-9.35878
▁—	-9.36014
▁side	-9.3605
प्रसाद	-9.36053
▁सैनिक	-9.3615
▁डि	-9.36212
▁गठन	-9.36224
um	-9.3628
▁एवं	-9.36339
जे	-9.36452
▁कम्पनी	-9.36506
ak	-9.36627
▁अनुभव	-9.36698
▁statement	-9.36731
▁गर्छ	-9.36781
स्ट	-9.36856
▁problems	-9.36996
▁अमेरिका	-9.37106
▁आवश्यकता	-9.37125
st	-9.3713
▁डे	-9.37292
▁large	-9.37319
pu	-9.37346
▁समाप्त	-9.37389
▁व्यापार	-9.37402
▁role	-9.37434
▁कृषि	-9.37447
▁8	-9.37477
N	-9.37504
▁considered	-9.37515
▁organization	-9.37555
we	-9.37558
▁com	-9.37596
▁सामान्य	-9.37638
ist	-9.37648
▁करोड	-9.37669
at	-9.37678
land	-9.37728
अहिले	-9.3776
▁८	-9.37917
▁भ्रमण	-9.37999
▁दफा	-9.38148
▁आरोप	-9.3819
▁अन्त्य	-9.3821
▁निजी	-9.38225
▁run	-9.3823
Even	-9.38329
िरहेको	-9.38359
▁कति	-9.38394
us	-9.38475
▁परिवार	-9.38579
▁living	-9.38642
▁ठूला	-9.38646
era	-9.38676
▁गर्छन्	-9.38947
▁तल	-9.39033
▁हाल	-9.39114
▁until	-9.39157
रले	-9.39225
▁बाल	-9.3929
भरि	-9.39375
▁play	-9.39477
tar	-9.3971
▁वित्तीय	-9.39804
जब	-9.39924
▁महिना	-9.39944
eka	-9.39967
▁मानव	-9.39974
▁सेट	-9.39993
tha	-9.40002
▁अधिकारी	-9.4003
कि	-9.40076
▁सी	-9.40163
▁आक्रमण	-9.40232
▁साथ	-9.40308
ary	-9.40414
ाउनु	-9.40463
▁दक्षिण	-9.40753
▁रि	-9.40767
▁coming	-9.40832
▁यात्रा	-9.40916
▁book	-9.4094
▁मद्दत	-9.40959
ul	-9.41093
▁व्यवसाय	-9.41125
▁young	-9.41208
▁हप्ता	-9.41264
पत्र	-9.41289
।”	-9.41312
iya	-9.41372
▁democracy	-9.41432
▁१२	-9.41457
gan	-9.41522
▁तिमी	-9.4153
▁सम्पत्ति	-9.41724
▁visit	-9.4184
▁workers	-9.41897
▁Department	-9.41898
▁संलग्न	-9.41936
▁त्यसपछि	-9.42024
▁आइ	-9.42081
हे	-9.42252
▁goods	-9.42276
▁पाउने	-9.42338
▁campaign	-9.42397
ton	-9.42494
त्यसपछि	-9.42628
her	-9.4264
▁भएमा	-9.4264
▁Section	-9.42656
जु	-9.4267
▁वितरण	-9.42692
▁अरू	-9.42716
▁श	-9.42732
२०	-9.4275
▁media	-9.42757
▁community	-9.42767
▁केन्द्रीय	-9.42821
▁९	-9.42995
▁११	-9.43021
▁सचिव	-9.43039
▁सरकारको	-9.43048
▁war	-9.43103
▁pay	-9.43141
▁तपाईँले	-9.43226
▁third	-9.43247
▁पर	-9.43295
▁&	-9.43468
▁clear	-9.43475
shi	-9.43513
▁बतायो	-9.43543
thi	-9.43594
नको	-9.43662
▁though	-9.43664
▁बाँकी	-9.43701
▁became	-9.43729
लु	-9.43788
▁गराउन	-9.44019
▁न्याय	-9.44089
▁prescribed	-9.4414
▁३०	-9.44194
▁taking	-9.44236
▁सम्बन्धमा	-9.44273
▁आदि	-9.44357
▁love	-9.44359
▁too	-9.44436
▁मि	-9.44443
▁total	-9.44448
०	-9.4446
▁लाग्छ	-9.44561
▁language	-9.44642
▁संघ	-9.44661
▁sent	-9.44685
▁line	-9.44721
ban	-9.44733
▁प्रविधि	-9.4475
▁investment	-9.44755
ौँ	-9.44798
No	-9.44815
हो	-9.44833
▁पद	-9.44846
चा	-9.44928
िरहेका	-9.44928
सँगको	-9.44969
▁billion	-9.44994
▁सम्पूर्ण	-9.45016
▁मो	-9.45051
▁कथा	-9.45104
▁हु	-9.45132
▁वस्तु	-9.45157
mu	-9.45174
▁स्रोत	-9.45205
pari	-9.45232
▁field	-9.45296
▁पर्दछ	-9.45306
▁परीक्षण	-9.45317
▁added	-9.45347
▁news	-9.45507
harulai	-9.45539
▁La	-9.45548
Similarly	-9.45549
▁प्रेम	-9.45578
एल	-9.45579
▁why	-9.45604
ताको	-9.45626
yan	-9.45706
▁along	-9.45748
ant	-9.45799
▁धर्म	-9.45883
▁Shrestha	-9.45919
▁गर्दछन्	-9.45933
▁production	-9.45989
▁Prasad	-9.46098
bahek	-9.46121
िन्	-9.46161
Therefore	-9.46469
कर्ता	-9.46472
▁film	-9.46497
▁peace	-9.46527
▁big	-9.46558
जि	-9.4656
▁भूमिका	-9.46696
▁कायम	-9.46763
▁Police	-9.46855
▁दाबी	-9.46941
▁keep	-9.46957
upa	-9.46972
▁जोड	-9.47092
▁World	-9.47114
▁major	-9.47185
▁लागू	-9.47222
▁युद्ध	-9.47249
▁काठमाडौं	-9.47305
▁study	-9.4732
▁agreement	-9.47388
▁क्या	-9.47423
section	-9.47444
ाएर	-9.47479
▁त्यसको	-9.47485
श्री	-9.47522
▁भित्र	-9.47562
पि	-9.47747
▁हामीलाई	-9.47768
▁पुनः	-9.47789
काठमाडौं	-9.47836
▁यु	-9.47847
▁प्रवेश	-9.47933
▁अनुमान	-9.47979
▁little	-9.48006
▁जा	-9.4805
madhye	-9.48068
एन	-9.48097
▁others	-9.48275
क्स	-9.48277
▁always	-9.48305
ted	-9.48318
▁Association	-9.48327
▁संख्या	-9.48331
ck	-9.48428
▁भुक्तानी	-9.48582
dai	-9.48627
▁बन	-9.48643
▁yet	-9.48651
▁Board	-9.48676
▁never	-9.48755
केही	-9.4876
pani	-9.48765
▁times	-9.48767
▁आशा	-9.48772
▁तापनि	-9.48854
▁औषधि	-9.48864
mal	-9.48955
▁नगर	-9.49001
▁तिनीहरूलाई	-9.49036
sangko	-9.49307
Then	-9.4932
▁price	-9.49321
▁परमप्रभु	-9.49339
यसको	-9.49345
ive	-9.49359
▁future	-9.49368
▁निश्चित	-9.49397
▁समाचार	-9.49421
▁seems	-9.49447
▁killed	-9.49457
▁गर्नुपर्ने	-9.49528
yu	-9.49566
▁गरेपछि	-9.49673
▁provided	-9.49735
▁बमोजिमको	-9.4984
ण्ड	-9.49876
▁आधार	-9.49938
हामीले	-9.49966
(	-9.49972
▁दियो	-9.50036
बल	-9.50039
Nepal	-9.50129
▁ने	-9.50249
▁राज	-9.50273
wal	-9.50331
ism	-9.50366
▁लिने	-9.50438
▁Israel	-9.505
▁To	-9.50539
▁बोल	-9.50668
र्ट	-9.50675
वे	-9.5074
▁top	-9.50778
▁सात	-9.50799
bhitra	-9.50897
▁भएकाले	-9.50991
▁सम्पन्न	-9.51047
▁Thapa	-9.5105
▁least	-9.51057
je	-9.51156
▁व्यापक	-9.51173
▁Su	-9.51189
ah	-9.51203
▁फ	-9.51205
▁चलचित्र	-9.513
▁ध्यान	-9.51303
batai	-9.51323
▁whether	-9.51388
▁लेख	-9.51404
Some	-9.51408
हि	-9.51432
▁fact	-9.51449
M	-9.51456
fi	-9.51465
kan	-9.51498
दि	-9.51543
▁etc	-9.51626
▁निर्देशक	-9.51628
▁0	-9.51706
▁कहिल्यै	-9.51786
▁live	-9.518
2	-9.51824
▁उनीहरूको	-9.51889
दिन	-9.51947
▁available	-9.52199
डि	-9.52211
▁फिल्म	-9.52251
पन	-9.52257
▁सहभागी	-9.52282
est	-9.52365
marfat	-9.52463
▁later	-9.52492
ful	-9.52553
▁fire	-9.52802
▁ड	-9.52813
▁15	-9.52826
▁उक्त	-9.52919
▁best	-9.53074
▁असफल	-9.53139
▁General	-9.53297
▁won	-9.53423
कुमार	-9.53437
▁सह	-9.53451
दी	-9.53452
is	-9.53459
rs	-9.53568
ine	-9.53568
▁training	-9.53678
▁activities	-9.53692
▁हुँदै	-9.53846
▁Ram	-9.53864
▁भाषा	-9.53866
▁सफल	-9.53898
▁start	-9.53907
Although	-9.53984
बाहिर	-9.53995
▁१८	-9.54141
▁चल	-9.54142
▁उसले	-9.54181
▁Oli	-9.54234
शा	-9.54243
▁Dr	-9.54254
▁non	-9.54291
▁हे	-9.54447
नाथ	-9.54467
▁बनेको	-9.54469
▁seven	-9.54517
▁Ro	-9.54606
▁look	-9.54704
▁बन्न	-9.54733
ष	-9.54772
िन्छ	-9.54842
▁central	-9.54913
▁बैठक	-9.54941
ut	-9.55211
▁परियोजना	-9.55235
सन	-9.55259
▁find	-9.55371
▁date	-9.55392
▁मात्रै	-9.55502
ीकरण	-9.55543
hal	-9.5559
▁minister	-9.55608
▁दिएका	-9.55687
His	-9.55722
▁strong	-9.55746
▁season	-9.558
▁सीमा	-9.55858
▁rate	-9.55858
▁forward	-9.55896
▁रोग	-9.56019
▁मह	-9.56019
ud	-9.56067
▁गराउने	-9.5612
▁asked	-9.56581
▁विद्यार्थी	-9.56598
▁nation	-9.56625
▁tax	-9.56643
▁उनका	-9.56657
बे	-9.56664
आर	-9.56676
nagar	-9.56682
▁army	-9.5672
▁गीत	-9.56786
्छन्	-9.56832
▁industry	-9.56862
▁कसैले	-9.56901
▁रे	-9.56918
▁दल	-9.56921
▁सम्म	-9.56929
▁पेश	-9.56956
▁कारबाही	-9.56965
▁यति	-9.57134
O	-9.5725
3	-9.57266
dhi	-9.57339
▁समितिको	-9.57457
L	-9.57531
jo	-9.57536
▁हुनुहुन्छ	-9.57549
दार	-9.57627
▁अस्पताल	-9.57628
▁बचत	-9.57658
▁जनता	-9.57696
▁सानो	-9.57816
▁face	-9.57844
▁Court	-9.57924
▁दर	-9.57998
▁view	-9.5804
ुवा	-9.58073
▁list	-9.58084
▁गोली	-9.58236
मि	-9.58278
न्स	-9.58381
▁अस्वीकार	-9.58392
▁less	-9.58524
▁जिल्लामा	-9.58608
▁बो	-9.58672
tal	-9.58688
जना	-9.58762
▁trying	-9.58773
▁दु	-9.58902
मलाई	-9.5893
▁death	-9.58964
▁p	-9.58964
▁मानिसहरूले	-9.58967
▁places	-9.59037
▁पक्ष	-9.5915
त्यस	-9.59214
▁established	-9.59238
टर	-9.59369
wiruddha	-9.59375
हाल	-9.59395
▁issues	-9.59399
▁written	-9.59456
lin	-9.59515
▁अवसर	-9.59527
less	-9.59539
▁हि	-9.59639
अघि	-9.5971
ate	-9.5972
▁बजेट	-9.59727
ीको	-9.59733
▁difficult	-9.59772
न्ट	-9.59783
▁विकल्प	-9.59789
▁return	-9.59796
▁States	-9.59835
▁कोष	-9.59877
▁आफू	-9.59905
▁ठाउँमा	-9.59936
▁अभियान	-9.59945
▁हेर्न	-9.59964
sambandhi	-9.59988
▁using	-9.60029
▁died	-9.60038
▁trade	-9.60057
▁गए	-9.60069
▁heart	-9.60083
▁देशको	-9.60115
▁कारोबार	-9.60147
▁निर्देशन	-9.60183
▁अधिकृत	-9.60213
▁राख्ने	-9.60295
▁त्यही	-9.60351
▁प्रस्तुत	-9.60483
▁निर्धारण	-9.6049
▁पहिचान	-9.60525
▁","(	-9.60715
bhu	-9.60747
हरुमा	-9.60826
“	-9.60915
▁R	-9.60947
▁point	-9.60974
▁involved	-9.60977
▁form	-9.61053
lgayat	-9.61071
▁जस्तो	-9.61075
▁भन्न	-9.61096
▁co	-9.61102
▁सक्षम	-9.61246
िका	-9.61312
अनि	-9.61316
▁यातायात	-9.61348
▁sub	-9.61374
▁जाँच	-9.61404
▁management	-9.61474
▁known	-9.61522
▁full	-9.61549
▁जनाएको	-9.61661
ir	-9.61751
▁जल	-9.61807
▁Chief	-9.61826
▁खुला	-9.61853
▁तेस्रो	-9.61888
▁खण्ड	-9.61912
▁age	-9.61924
▁सकेन	-9.62001
▁matter	-9.62104
लाल	-9.6221
▁soon	-9.62221
डे	-9.62222
▁Maoist	-9.62259
▁building	-9.62361
All	-9.62434
▁पछाडि	-9.62471
▁South	-9.62486
wad	-9.62534
▁once	-9.62547
▁सन्देश	-9.6256
वाला	-9.62614
▁treatment	-9.6263
▁खाली	-9.62637
▁१६	-9.62638
haruma	-9.62664
▁औं	-9.62698
यर	-9.62727
▁व्यक्तिले	-9.62805
▁स्वीकार	-9.62913
्या	-9.62927
▁परिणाम	-9.6294
▁वातावरण	-9.62962
▁himself	-9.62988
ाले	-9.6299
dhan	-9.63026
▁budget	-9.63052
सबै	-9.63079
While	-9.63231
▁woman	-9.63252
▁शासन	-9.63348
मात्रै	-9.63351
ाएको	-9.63351
▁निर्वाचन	-9.63372
sta	-9.63447
▁मिति	-9.63536
chan	-9.63563
ाउँदै	-9.63651
मन्त्री	-9.63668
▁UML	-9.63675
kal	-9.63701
▁together	-9.63734
▁विवाह	-9.63739
▁Friday	-9.63816
▁सुरक्षित	-9.64001
▁मन्त्रालय	-9.64015
काअनुसार	-9.64036
पर	-9.64039
▁विरोध	-9.64116
पूर्व	-9.64281
▁understand	-9.64355
अब	-9.64514
▁Monday	-9.64612
▁भेट	-9.6465
▁मानिसहरूलाई	-9.64709
▁center	-9.64764
▁फरक	-9.64829
▁win	-9.64878
▁leave	-9.64955
मन	-9.64986
▁बजारमा	-9.65088
नेपाली	-9.65201
tarfa	-9.65226
men	-9.65246
▁leadership	-9.65283
▁थिएँ	-9.65283
▁military	-9.65373
▁गते	-9.65381
ex	-9.65383
▁सामग्री	-9.65422
▁शब्द	-9.65436
▁anything	-9.65445
▁30	-9.65512
Re	-9.65842
▁क्षमता	-9.65865
▁reason	-9.65907
यु	-9.65994
ama	-9.65998
▁प्रहरीले	-9.66043
tira	-9.66068
▁car	-9.66219
char	-9.66233
▁वार्ता	-9.66272
▁आफूलाई	-9.66362
▁जना	-9.66374
गर	-9.66399
Ma	-9.66462
▁देशमा	-9.66485
▁related	-9.66494
▁पुस्तक	-9.66499
खा	-9.66547
▁उद्देश्य	-9.66625
▁य	-9.66665
▁companies	-9.6669
▁घण्टा	-9.66705
▁जग्गा	-9.66721
jha	-9.66784
▁बु	-9.66789
पो	-9.66805
▁employees	-9.66848
▁history	-9.66864
▁Secretary	-9.66932
▁एन	-9.67082
▁De	-9.67273
ts	-9.67352
▁सम	-9.67366
▁ध	-9.67381
▁question	-9.67408
▁आन्दोलन	-9.6741
▁Wednesday	-9.6748
▁income	-9.67517
▁पुगेको	-9.67527
▁कल	-9.6765
त्र	-9.67661
डो	-9.6773
▁increasing	-9.67817
▁भनी	-9.67821
▁projects	-9.67875
▁प्रशासन	-9.68063
▁politics	-9.68082
▁देख	-9.6811
▁गु	-9.68114
ीले	-9.68284
▁तयारी	-9.68392
▁immediately	-9.68409
उहाँले	-9.68431
▁कार्यकारी	-9.68473
ात्मक	-9.68639
▁Sunday	-9.68674
▁Thursday	-9.68882
dan	-9.68991
▁Tuesday	-9.69053
▁director	-9.69059
1	-9.69134
स्क	-9.69143
▁०	-9.69181
V	-9.69248
▁फिर्ता	-9.69256
▁स्थानमा	-9.69329
▁ठाउँ	-9.69423
W	-9.69488
bh	-9.69506
▁Singh	-9.69527
▁arrested	-9.69541
▁परि	-9.69556
▁authority	-9.69627
भि	-9.6967
▁let	-9.69686
९	-9.69734
▁raised	-9.69749
▁साथै	-9.69753
▁story	-9.69763
▁got	-9.69799
▁टिप्पणी	-9.69825
▁क्षेत्रको	-9.69828
▁उपभोक्ता	-9.69918
How	-9.69944
▁required	-9.70011
lal	-9.70135
ही	-9.70181
▁श्रेष्ठ	-9.70217
▁lost	-9.70239
▁रो	-9.70255
▁region	-9.70288
With	-9.70301
▁फुटबल	-9.70307
▁कुरामा	-9.70321
▁environment	-9.70334
▁near	-9.70372
ile	-9.70437
▁उपनियम	-9.70442
▁आग्रह	-9.70507
▁resources	-9.70568
▁शुरु	-9.70672
▁प्रतिक्रिया	-9.70726
▁हेर	-9.70728
▁प्रकाशित	-9.70739
▁technology	-9.70747
▁Ha	-9.7078
▁comes	-9.70783
▁air	-9.70784
▁भि	-9.7081
▁Kumar	-9.70824
rule	-9.70922
▁thing	-9.70925
▁चीन	-9.70926
▁अपराध	-9.70937
▁officer	-9.70996
▁२५	-9.71111
▁child	-9.71136
▁recent	-9.71153
et	-9.71233
▁संघीय	-9.71243
▁facilities	-9.71446
▁जु	-9.71517
▁gave	-9.71523
bhar	-9.71574
न्ड	-9.71594
▁based	-9.71644
रको	-9.71646
▁शुल्क	-9.71757
Since	-9.71789
▁पत्रकार	-9.71871
▁पुरुष	-9.71899
स्त	-9.71952
▁बस्ने	-9.71969
▁University	-9.7201
▁didn	-9.7205
▁भवन	-9.72161
▁५०	-9.72212
pal	-9.72226
बो	-9.7223
▁पे	-9.72273
ेन	-9.72276
▁सम्मान	-9.72287
▁application	-9.7231
▁morning	-9.72334
▁सत्य	-9.72373
▁कालो	-9.72398
रिया	-9.72408
▁मध्य	-9.72434
सम्मको	-9.72449
नयाँ	-9.72449
▁हत्या	-9.72531
▁adding	-9.72579
▁जनताको	-9.7258
▁border	-9.72605
▁kind	-9.72613
ia	-9.72614
▁स्वतन्त्र	-9.72691
▁read	-9.72719
गु	-9.72741
▁पर्याप्त	-9.72756
▁competition	-9.7277
▁रेकर्ड	-9.72773
fe	-9.72854
▁final	-9.7286
One	-9.72883
▁तिमीहरू	-9.72894
▁तपाईं	-9.72928
▁con	-9.72937
▁उहाँ	-9.72943
▁decided	-9.72987
पनि	-9.72997
▁१४	-9.73015
▁क्लब	-9.73099
▁अन्तर्गत	-9.73129
▁ठीक	-9.73143
nath	-9.7316
▁व्यवसायी	-9.73173
▁बढ	-9.73295
▁cost	-9.73372
▁आधारित	-9.7341
▁हुन्छन्	-9.73462
▁Co	-9.73493
▁Plan	-9.73534
sak	-9.73556
▁२००७	-9.73572
▁outside	-9.7358
▁भु	-9.73636
▁पार	-9.73636
▁पास	-9.73653
बु	-9.73768
▁Party	-9.73859
▁व्यक्त	-9.73929
▁मिल	-9.74011
▁भनेको	-9.74026
▁population	-9.74046
▁गम्भीर	-9.74079
▁भू	-9.7408
▁पर्यटन	-9.74131
▁pre	-9.74198
▁ट	-9.74225
ster	-9.74263
sama	-9.7436
टे	-9.74429
▁might	-9.74492
▁light	-9.74536
▁वर्ग	-9.74565
▁everyone	-9.74604
▁issued	-9.74619
▁समितिले	-9.74649
▁असर	-9.74688
▁जति	-9.74709
im	-9.7473
पु	-9.74747
▁eat	-9.74813
▁thousand	-9.74833
▁expected	-9.74884
▁टोली	-9.74962
▁उसको	-9.74965
मेरो	-9.74985
▁having	-9.75079
▁पार्ने	-9.75091
चार	-9.75169
▁वर्तमान	-9.75171
उनको	-9.75182
▁तेल	-9.75302
▁believe	-9.75358
▁आउन	-9.75417
▁भई	-9.75418
▁विवाद	-9.75504
▁एम	-9.75564
led	-9.75636
▁तपाईँ	-9.75652
endra	-9.75666
▁themselves	-9.75681
0	-9.75689
सहितको	-9.75711
▁reach	-9.75823
▁York	-9.75863
▁organized	-9.7597
▁civil	-9.75974
▁चि	-9.75989
िम	-9.76041
▁पुरस्कार	-9.76043
ent	-9.76057
▁class	-9.76076
▁समर्थन	-9.76103
▁pressure	-9.76132
▁press	-9.76307
▁12	-9.7636
▁पत्र	-9.76368
▁यस्ता	-9.76374
H	-9.76376
▁बर्	-9.76405
▁वर्षमा	-9.76459
ber	-9.76472
▁American	-9.76504
chu	-9.76646
pro	-9.76758
▁No	-9.76789
▁दिन्छ	-9.76798
▁official	-9.76951
ाए	-9.76956
▁real	-9.77015
▁hospital	-9.77027
sal	-9.77048
▁programs	-9.77078
▁completed	-9.7709
karya	-9.77134
▁force	-9.77142
▁गरियो	-9.77142
ner	-9.77209
▁मान्यता	-9.77311
▁पीडित	-9.77335
▁cut	-9.77361
lam	-9.77364
▁आगामी	-9.77399
▁call	-9.77553
▁formed	-9.77571
line	-9.77666
▁responsibility	-9.77698
▁Ja	-9.77764
bas	-9.77765
▁सेयर	-9.77775
▁ता	-9.77803
दो	-9.77835
ेन्द्र	-9.77861
▁कठिन	-9.77892
युक्त	-9.77903
▁बलियो	-9.77915
min	-9.77932
▁आए	-9.77944
▁होला	-9.77978
▁चुनाव	-9.78016
swa	-9.78148
▁ति	-9.78174
▁गा	-9.78181
▁निकाय	-9.78281
त्	-9.78334
Y	-9.78342
▁रा	-9.78456
▁स्थापित	-9.78508
bhi	-9.78569
wala	-9.78578
▁music	-9.78613
matrai	-9.78639
▁Yadav	-9.78661
▁सेना	-9.78683
▁hit	-9.78758
age	-9.78773
▁Saturday	-9.78787
per	-9.78841
▁प्राविधिक	-9.78948
ेश्वर	-9.78979
▁सकिने	-9.79003
sang	-9.79033
hari	-9.79166
▁ज्ञान	-9.79203
▁something	-9.79274
हर	-9.79298
These	-9.79318
▁घरमा	-9.79335
▁वर्षीय	-9.79355
हु	-9.79442
जो	-9.795
▁नदी	-9.79504
िनु	-9.79532
▁Sharma	-9.79544
▁further	-9.79567
id	-9.79571
▁संकलन	-9.7963
▁आधा	-9.79662
▁works	-9.79666
▁voice	-9.79725
▁व्यक्तिलाई	-9.79741
▁भर	-9.79743
▁सूची	-9.79805
patra	-9.79807
फा	-9.79913
▁wife	-9.79929
▁Assembly	-9.79977
▁समाज	-9.80036
▁अभाव	-9.80101
▁100	-9.80177
▁course	-9.80187
▁अवधिमा	-9.80204
▁कम्तीमा	-9.80216
▁doing	-9.8023
pati	-9.80327
▁across	-9.80327
▁House	-9.80502
AP	-9.80532
▁वे	-9.80532
▁चैत	-9.80588
▁अल	-9.80608
ham	-9.80664
▁cause	-9.80692
▁भा	-9.80812
gha	-9.80878
▁began	-9.80917
▁Chinese	-9.80936
▁result	-9.80938
▁L	-9.80994
▁अवस्थित	-9.81009
टि	-9.81039
▁अफ	-9.81053
During	-9.81106
▁led	-9.81114
िय	-9.81182
▁better	-9.81196
▁plans	-9.81253
▁नहुने	-9.81271
▁जिम्मेवारी	-9.81277
▁organizations	-9.8128
▁मार्ग	-9.81281
ङ्	-9.81291
घर	-9.81327
▁बिना	-9.81384
कोट	-9.81393
▁प्रमाण	-9.81447
▁talks	-9.81463
▁stop	-9.81518
▁इन्	-9.8153
▁research	-9.81565
▁सिफारिस	-9.81606
▁१३	-9.8163
पे	-9.81738
▁कांग्रेस	-9.81767
shan	-9.81779
kot	-9.81843
▁प्रतिनिधि	-9.8188
▁dis	-9.819
▁needs	-9.81906
ाय	-9.81967
▁meet	-9.81985
der	-9.82009
▁तालिम	-9.82018
?""	-9.82019
para	-9.82069
कारी	-9.82093
▁announced	-9.82148
chhan	-9.82166
▁W	-9.82259
▁उपकरण	-9.82288
nd	-9.8233
▁If	-9.82355
देश	-9.82417
▁खेलाडी	-9.82451
▁कुराहरू	-9.82473
▁पी	-9.82484
▁१७	-9.826
▁कानून	-9.82602
िएर	-9.82609
▁आयो	-9.82693
▁San	-9.82726
▁एस	-9.8274
ng	-9.82802
▁kept	-9.82811
jasto	-9.82846
▁परेका	-9.8287
▁goal	-9.82913
▁mentioned	-9.82951
▁कदम	-9.83023
वर	-9.83032
▁itself	-9.83055
▁value	-9.83098
▁11	-9.83212
▁lead	-9.83238
▁published	-9.83271
▁पुरानो	-9.83282
▁सवारी	-9.83289
▁share	-9.83306
▁पर्यो	-9.83324
▁भूमि	-9.83332
▁impact	-9.83349
ल्	-9.83401
▁operation	-9.83429
▁प्रकाशन	-9.83463
▁data	-9.83508
▁शुक्रबार	-9.83563
▁above	-9.8361
▁short	-9.83615
▁भन्नाले	-9.8362
▁तिम्रो	-9.83651
awa	-9.83682
▁दबाब	-9.83683
▁प्रजातन्त्र	-9.83801
▁addition	-9.83806
भी	-9.83823
▁अरु	-9.83835
▁blood	-9.8384
▁ल्याउन	-9.83874
▁opened	-9.83913
▁देखिएको	-9.83936
▁बढाउन	-9.83996
शि	-9.83999
▁self	-9.84059
▁चिन्ता	-9.84098
▁तपाईँको	-9.841
▁16	-9.84132
▁ऊर्जा	-9.84163
▁front	-9.8417
▁c	-9.84176
▁They	-9.84215
▁अङ्क	-9.84232
▁forest	-9.84235
▁यौन	-9.84271
▁दि	-9.84335
▁products	-9.84343
gari	-9.84348
day	-9.84349
लिन	-9.84361
▁त्यसैले	-9.84396
▁"‘	-9.8447
न्त	-9.84544
ृ	-9.8461
▁create	-9.84617
▁सक्नुहुन्छ	-9.84682
▁18	-9.84714
▁low	-9.84831
▁property	-9.84834
▁daughter	-9.84839
J	-9.84894
▁तह	-9.84905
नमा	-9.84942
चि	-9.84974
र्ड	-9.8498
▁players	-9.85005
▁साथी	-9.85009
▁deal	-9.85076
▁ई	-9.85081
▁कार्यकर्ता	-9.85103
lgayatka	-9.85115
▁incident	-9.85124
ष्ट	-9.85171
An	-9.85176
▁परमेश्वर	-9.85196
au	-9.852
▁close	-9.85206
6	-9.85221
dh	-9.85237
▁Ni	-9.85237
िस	-9.85244
anu	-9.85349
▁गैर	-9.85399
एउटा	-9.85419
▁गोल	-9.85421
▁मिडिया	-9.85427
▁practice	-9.85446
▁लु	-9.85468
▁You	-9.85499
con	-9.85579
क्	-9.85606
▁नगर्ने	-9.85611
▁जस्ता	-9.85613
▁यही	-9.8568
▁hard	-9.85737
शी	-9.85778
ized	-9.85842
▁पुन	-9.85875
हाम्रो	-9.8589
lan	-9.85904
▁विभाग	-9.86017
▁inside	-9.86023
devi	-9.86029
bahadur	-9.8605
▁छिटो	-9.86198
os	-9.86255
▁कागजात	-9.8628
▁आन्तरिक	-9.86291
▁भन	-9.86367
त्व	-9.864
ियन	-9.86601
▁economy	-9.86602
▁सञ्चार	-9.86605
▁सोमबार	-9.86623
iko	-9.86651
१०	-9.86653
▁hundred	-9.86679
▁natural	-9.86716
▁लोक	-9.8684
▁सर	-9.87014
▁हाम्रा	-9.87015
न्द	-9.87055
▁सुझाव	-9.87092
▁प्रायः	-9.87102
dal	-9.87103
▁growth	-9.87104
▁International	-9.87144
▁culture	-9.87147
▁continue	-9.8716
▁योगदान	-9.87196
▁saw	-9.87218
रू	-9.8723
▁चुनौती	-9.87236
▁heard	-9.8724
▁license	-9.87276
▁पुग्यो	-9.87287
▁districts	-9.87317
हरूबाट	-9.87394
▁mind	-9.87435
▁administration	-9.87449
▁पु	-9.87492
▁So	-9.87532
tin	-9.87578
क्ष	-9.87595
▁सामना	-9.87606
▁खान	-9.87607
▁लागत	-9.87679
▁सिंह	-9.8768
▁poor	-9.8773
▁early	-9.87734
▁चु	-9.8775
▁f	-9.87769
▁गलत	-9.87776
▁बुधबार	-9.87776
म्प	-9.87864
नगर	-9.87866
▁मान्छे	-9.87962
ष्	-9.88024
Due	-9.88037
▁गाडी	-9.88098
dy	-9.88141
▁अदालत	-9.8819
ning	-9.88248
▁आँखा	-9.88266
ल्ड	-9.88287
▁म्याक	-9.88364
▁investigation	-9.88372
▁oil	-9.88376
▁कला	-9.88416
▁विधेयक	-9.8849
▁demand	-9.88541
▁पाउन	-9.8857
▁स्व	-9.88599
▁आम्दानी	-9.88617
▁लाइन	-9.88672
▁वर्षअघि	-9.88708
▁डर	-9.88713
▁उनीहरूलाई	-9.88718
▁उपयुक्त	-9.88745
▁thought	-9.88755
bhan	-9.88756
▁जम्मा	-9.88765
▁secretary	-9.88799
ika	-9.88889
▁नजिक	-9.88889
त्त	-9.88944
▁फोन	-9.88968
१९	-9.88986
▁पश्चिम	-9.89032
bra	-9.89123
Mr	-9.89169
chhu	-9.89219
▁H	-9.89283
▁located	-9.89287
▁दैनिक	-9.89333
आफ्नो	-9.89369
▁बढेको	-9.89417
mon	-9.89541
kh	-9.89571
▁really	-9.89589
्दछ	-9.89632
▁care	-9.89654
▁गृह	-9.89688
▁खा	-9.89817
din	-9.89836
▁सोच	-9.89861
▁तर्क	-9.89872
आज	-9.89903
यस्तो	-9.89984
▁कुञ्जी	-9.89991
▁पक्षमा	-9.90069
▁भनाइ	-9.90115
▁उपाध्यक्ष	-9.90143
▁selected	-9.90152
दुई	-9.90154
▁सही	-9.90192
▁An	-9.90204
▁प्रभावित	-9.9024
▁सम्बोधन	-9.90261
▁Rules	-9.90321
▁legal	-9.90339
khu	-9.90415
▁crisis	-9.90489
▁eyes	-9.90501
▁श्रम	-9.90524
▁disease	-9.90535
▁परमप्रभुले	-9.90543
▁employee	-9.90552
4	-9.9058
▁वास्तविक	-9.90588
▁खुशी	-9.90715
वार	-9.90739
▁सजाय	-9.9074
▁expressed	-9.90749
सले	-9.90764
▁नौ	-9.90766
▁Vi	-9.90772
▁आमा	-9.90818
▁प्रतिस्पर्धा	-9.90911
▁लगाउन	-9.90962
▁सक्दैन	-9.90996
▁quality	-9.91003
▁returned	-9.91051
▁message	-9.91069
▁प्रजातान्त्रिक	-9.91071
मेन्ट	-9.91087
▁महसुस	-9.91228
▁Ta	-9.91262
▁key	-9.91313
▁दिइएको	-9.91321
▁attention	-9.91397
▁ऊ	-9.91397
▁Koirala	-9.91415
▁दश	-9.9145
she	-9.91457
▁Si	-9.91516
▁played	-9.91528
▁अधिकारीहरूले	-9.91583
▁लाग्ने	-9.91599
▁आइतबार	-9.91677
▁Be	-9.91683
dev	-9.91701
▁black	-9.91712
▁हरेक	-9.91718
▁Do	-9.91757
▁conference	-9.91761
▁eight	-9.91825
▁efforts	-9.91835
ie	-9.91851
मर	-9.91923
▁abroad	-9.91954
▁फाइदा	-9.91959
▁राखे	-9.91982
▁job	-9.92001
उनीहरूले	-9.92034
▁सम्पर्क	-9.92072
wya	-9.92101
▁Le	-9.92126
▁कर्तव्य	-9.92213
▁हा	-9.92245
▁कुन	-9.92258
▁थिइन्	-9.92263
▁प्रभावकारी	-9.92271
▁details	-9.92288
▁शाही	-9.9233
▁कार	-9.92337
▁केन्द्रित	-9.92343
▁आपूर्ति	-9.92403
▁वार्षिक	-9.92421
▁विजय	-9.92444
▁बाध्य	-9.92447
लाइ	-9.92459
▁प्रत्यक्ष	-9.92502
▁movie	-9.92527
▁वर्षसम्म	-9.92604
▁टाढा	-9.92658
िता	-9.92658
▁थापा	-9.92712
pre	-9.92718
den	-9.92721
नन्	-9.92726
▁room	-9.92817
▁एउटै	-9.92828
▁conflict	-9.92831
▁fear	-9.92833
gal	-9.92836
▁नेपालका	-9.92853
करण	-9.92894
▁cases	-9.92935
▁giving	-9.92939
▁अतिरिक्त	-9.92953
▁मूल	-9.92961
ize	-9.93004
▁आगो	-9.93032
बर	-9.93043
ार	-9.93117
▁staff	-9.93127
▁pro	-9.93155
ल्यान्ड	-9.93159
▁एल	-9.93169
▁looking	-9.93189
▁site	-9.93195
▁elections	-9.93244
mp	-9.93253
▁paid	-9.93301
▁http	-9.93308
▁महत्वपूर्ण	-9.93361
▁ground	-9.93375
Many	-9.93395
साथै	-9.93401
▁आम	-9.93417
▁पाठ	-9.93433
▁Bo	-9.93439
▁तत्काल	-9.93522
▁खु	-9.93561
▁senior	-9.93607
▁छुट	-9.93615
वास	-9.9363
▁रात	-9.93682
ghat	-9.93717
▁Da	-9.93735
▁This	-9.93773
▁व्यक्तिगत	-9.93826
▁J	-9.93846
▁रोक	-9.93847
▁प्रमाणपत्र	-9.93866
▁points	-9.93908
▁होस्	-9.93913
▁अझ	-9.93934
▁relations	-9.93936
▁नाममा	-9.93978
▁proposal	-9.93996
▁:	-9.94058
ap	-9.94131
▁नव	-9.94135
▁अहिलेसम्म	-9.94136
▁Man	-9.94208
▁चाल	-9.94228
दु	-9.94317
▁हक	-9.94318
cho	-9.94341
▁दृश्य	-9.94372
▁आयोग	-9.94477
▁schools	-9.94485
▁address	-9.94509
कोलागि	-9.94568
ima	-9.94578
▁opportunity	-9.94643
▁स्	-9.94664
ies	-9.94691
▁भावना	-9.94778
▁व्यवहार	-9.94805
▁बताउँछन्	-9.9483
▁बालबालिका	-9.94831
▁मन्दिर	-9.94874
▁word	-9.94884
▁g	-9.94907
▁कार्यक्रममा	-9.94973
खोला	-9.9498
▁अधिकारीले	-9.95004
म्ब	-9.95014
▁लग	-9.95026
▁prepared	-9.95058
▁रहने	-9.9509
एम	-9.95113
▁nothing	-9.95148
▁आयात	-9.95159
▁झ	-9.95189
देवी	-9.95197
▁लगाउने	-9.95208
▁दुःख	-9.95247
▁मेरा	-9.95392
चे	-9.954
ren	-9.95506
कुनै	-9.95544
8	-9.95545
ang	-9.95549
▁Li	-9.95574
▁record	-9.95602
▁rather	-9.95657
ाको	-9.95669
▁purpose	-9.95697
▁Iraq	-9.957
▁transport	-9.95735
▁Madhesi	-9.95757
▁www	-9.95799
सं	-9.95871
ol	-9.959
▁Municipality	-9.96006
▁lives	-9.9601
▁पाए	-9.96036
▁attack	-9.96041
▁Raj	-9.96189
▁built	-9.96228
▁उत्पन्न	-9.96266
ेज	-9.9631
कहाँ	-9.96319
धेरै	-9.96384
▁खाना	-9.96489
▁रक्षा	-9.96505
▁position	-9.96549
▁उनीहरू	-9.96573
▁build	-9.96578
kin	-9.96611
▁अभ्यास	-9.96639
▁friends	-9.9668
ीमा	-9.96708
▁पहुँच	-9.96721
]	-9.96731
▁प्राथमिकता	-9.96742
▁बिहीबार	-9.96789
▁जोखिम	-9.96803
स्थल	-9.96847
पानी	-9.96868
▁एमाले	-9.96875
▁हेरचाह	-9.9688
▁बनाएको	-9.96991
▁तब	-9.97018
▁September	-9.97144
▁title	-9.97157
▁Officer	-9.97162
▁Ga	-9.97194
▁साधन	-9.97249
▁पुनर्स्थापना	-9.97256
▁football	-9.97331
▁serious	-9.97351
यसरी	-9.97355
khola	-9.97363
▁खराब	-9.97367
देव	-9.97388
fo	-9.97415
▁Al	-9.97519
mit	-9.97544
7	-9.97577
▁Ar	-9.97581
▁experience	-9.97648
यद्यपि	-9.97676
▁चा	-9.97789
▁तिमीहरूले	-9.97874
▁stopped	-9.97938
▁reported	-9.97974
▁hours	-9.97981
▁संरचना	-9.97988
ring	-9.97991
▁गरि	-9.98027
ाल	-9.98047
▁आठ	-9.98065
sen	-9.98114
▁बताएका	-9.98115
tako	-9.98126
▁आय	-9.98132
▁आई	-9.9814
▁प्रकारको	-9.98155
▁भएन	-9.98199
▁अनु	-9.98204
▁earthquake	-9.98214
▁देव	-9.98243
कल	-9.98255
▁Me	-9.98269
▁husband	-9.98293
▁घ	-9.98295
▁letter	-9.983
▁words	-9.98429
▁सहायता	-9.98501
▁अति	-9.98529
▁Mo	-9.98643
op	-9.98677
▁सभा	-9.98796
▁परमेश्वरले	-9.98811
▁छोरी	-9.9883
सर	-9.98842
ksha	-9.98867
▁hands	-9.98871
From	-9.98897
ana	-9.98903
▁उपयोग	-9.99053
वन	-9.99078
ामा	-9.99159
सिंह	-9.99169
▁Ca	-9.99174
▁पिता	-9.99201
▁लेखक	-9.99207
▁पत्ता	-9.99212
▁It	-9.99225
▁मूल्याङ्कन	-9.9923
▁enough	-9.99303
purna	-9.99323
ाइएको	-9.99367
▁शर्मा	-9.99407
▁o	-9.99452
pri	-9.99619
धि	-9.9964
kam	-9.9966
जर	-9.99671
▁rules	-9.99717
▁कलेज	-9.99781
▁David	-9.99805
▁दा	-9.99848
▁ग्रामीण	-9.99883
▁subject	-9.99887
▁ready	-9.99943
ron	-9.99959
mani	-9.99988
ci	-10.0002
▁पुल	-10.0002
▁referred	-10.0003
▁several	-10.0005
jasta	-10.0012
▁लिग	-10.0012
▁gold	-10.0015
aune	-10.0017
▁अन	-10.002
▁भनिन्	-10.0026
▁बिहान	-10.0031
▁राखेको	-10.0032
▁नगरपालिका	-10.0034
स्थान	-10.0034
▁हुनुपर्छ	-10.0036
Because	-10.0038
▁तारा	-10.004
ghar	-10.0044
▁created	-10.0046
▁सम्मेलन	-10.0047
maya	-10.0058
▁vehicle	-10.0059
▁मत	-10.0064
▁लो	-10.0064
▁electricity	-10.0069
▁$	-10.0072
▁राजस्व	-10.0076
▁भिडियो	-10.0076
▁दौड	-10.008
▁नम्बर	-10.0083
िङ्ग	-10.0085
ot	-10.0093
▁नेपालले	-10.0093
▁likely	-10.0095
▁त्यसलाई	-10.0095
▁बिरामी	-10.0096
▁rule	-10.0101
▁common	-10.0103
▁terms	-10.0104
haruka	-10.0108
▁शिक्षक	-10.0108
▁brother	-10.0116
▁feel	-10.0116
ेल	-10.012
ग्	-10.0124
▁Ri	-10.0127
▁बस्न	-10.0131
▁anyone	-10.014
▁शनिबार	-10.0143
वान	-10.0147
▁गरेमा	-10.0148
▁condition	-10.0149
▁शिव	-10.015
▁performance	-10.015
▁तिर	-10.0155
▁पाल	-10.0157
▁सकेको	-10.0159
ेसन	-10.016
गी	-10.0163
ten	-10.0164
▁fine	-10.017
saha	-10.0171
वी	-10.0174
▁थोरै	-10.0175
▁क्रिकेट	-10.0176
▁executive	-10.0177
▁Cup	-10.0179
यहाँ	-10.0181
ger	-10.0184
▁King	-10.019
▁उडान	-10.0196
▁अधिकांश	-10.0197
▁speak	-10.0203
▁river	-10.0207
sur	-10.0209
ian	-10.0212
▁हस्ताक्षर	-10.022
▁contract	-10.0229
▁Cha	-10.0231
द्ध	-10.0234
▁लिएको	-10.0236
▁डो	-10.024
▁quarter	-10.0252
▁May	-10.0256
▁department	-10.0257
▁व्यावसायिक	-10.026
▁परामर्श	-10.0265
▁कोही	-10.028
▁डी	-10.0283
▁needed	-10.0283
▁साना	-10.0291
▁प्रेस	-10.0294
uwa	-10.0296
▁भ्रष्टाचार	-10.0304
▁tell	-10.0304
ping	-10.0309
▁जाति	-10.031
▁towards	-10.0311
वटा	-10.0315
▁match	-10.0323
ढ	-10.0331
▁higher	-10.0332
▁failed	-10.0336
out	-10.0336
▁currently	-10.0337
▁बी	-10.0343
▁करार	-10.0343
▁send	-10.0345
▁बुझ	-10.0346
▁रोक्न	-10.0353
वाल	-10.0356
▁born	-10.0356
गाउँ	-10.0359
▁गुणस्तर	-10.0364
▁accused	-10.0368
▁Center	-10.0371
▁भन्नु	-10.0373
▁रहेछ	-10.0375
▁art	-10.0378
▁energy	-10.0379
▁धन	-10.0379
gat	-10.038
नका	-10.038
▁almost	-10.0383
्नुपर्ने	-10.0386
Not	-10.0389
▁जवाफ	-10.0389
▁जसरी	-10.0392
tle	-10.0393
▁मुलुक	-10.0395
▁behind	-10.04
▁tried	-10.0413
▁वरिपरि	-10.0419
kari	-10.042
ठा	-10.0421
▁टि	-10.0421
▁14	-10.0428
▁संकट	-10.0433
▁बाट	-10.044
▁नसक्ने	-10.044
▁सर्व	-10.0445
port	-10.0449
▁hold	-10.045
स्टर	-10.0451
▁अर्	-10.0452
बीचको	-10.0456
▁image	-10.0456
चाहिँ	-10.0458
▁घाइते	-10.0458
▁Bi	-10.0469
▁रङ	-10.047
▁भर्ना	-10.0474
▁त्रुटि	-10.0476
▁Bar	-10.0486
▁Authority	-10.049
▁नियमित	-10.0491
▁seem	-10.0492
▁प्रतिनिधित्व	-10.0498
▁protect	-10.0503
▁थाले	-10.0505
sing	-10.0506
▁risk	-10.0507
eshwar	-10.0515
सरकारले	-10.0516
▁recently	-10.0518
ोस्	-10.0521
▁छिमेकी	-10.0524
एस	-10.0526
एको	-10.0526
ated	-10.0527
प्रतिको	-10.0529
▁account	-10.0533
योग्य	-10.0536
▁कलाकार	-10.054
▁परीक्षा	-10.0546
नेपालमा	-10.0547
▁वरिष्ठ	-10.0547
▁raise	-10.0547
▁getting	-10.055
▁Rai	-10.0551
▁कारणले	-10.0555
▁लेखिएको	-10.0556
▁Parliament	-10.0558
▁डिजाइन	-10.0559
▁ten	-10.0559
▁event	-10.056
▁चिनियाँ	-10.056
▁Di	-10.0562
ous	-10.0563
▁groups	-10.0564
ते	-10.0566
ash	-10.0567
▁दो	-10.0568
▁उचित	-10.0569
▁banks	-10.057
▁खोजी	-10.0571
▁access	-10.0573
▁stay	-10.0575
sahitko	-10.0577
▁इतिहास	-10.0581
kumar	-10.0586
▁often	-10.0587
▁सोही	-10.0588
ven	-10.0589
▁पर्यटक	-10.0591
▁विश्वविद्यालय	-10.0598
My	-10.0599
ization	-10.0599
▁विज्ञान	-10.06
▁अनुदान	-10.06
ताका	-10.0606
▁विगत	-10.0608
ीलाई	-10.0609
▁संस्कृति	-10.0609
▁विश्वव्यापी	-10.0615
)-	-10.0618
▁यादव	-10.0623
X	-10.063
भित्रै	-10.0631
▁सक	-10.0632
▁फे	-10.0633
तब	-10.0634
▁जडान	-10.0637
▁Go	-10.0639
▁सार	-10.064
ver	-10.0641
▁उसलाई	-10.0644
em	-10.0646
र्क	-10.0653
▁गि	-10.0657
nar	-10.0658
▁प्रो	-10.0662
▁उठ	-10.0663
▁सक्रिय	-10.0664
▁Krishna	-10.0666
nir	-10.0669
▁employment	-10.0669
▁बिन्दु	-10.067
▁character	-10.067
▁भाइ	-10.0676
mantri	-10.0679
▁आउँछ	-10.068
tter	-10.0681
▁closed	-10.0682
De	-10.0684
▁notice	-10.0684
यता	-10.0689
ोस	-10.0689
▁पछिल्लो	-10.069
▁British	-10.069
ेश	-10.0693
▁पवित्र	-10.0694
za	-10.0697
▁कप	-10.0701
▁शरीर	-10.0705
▁source	-10.0709
ye	-10.071
दै	-10.0712
▁आवाज	-10.0722
▁forces	-10.0724
▁prices	-10.0726
bad	-10.0726
▁Army	-10.0728
्क	-10.0729
▁families	-10.0729
▁यस्तै	-10.0729
▁technical	-10.0732
▁laws	-10.0733
▁पाइन्छ	-10.0738
5	-10.074
▁forced	-10.0743
▁green	-10.0746
ish	-10.0749
▁fund	-10.0751
▁हुँ	-10.0759
▁nor	-10.0762
र्न	-10.0768
ंक	-10.0768
People	-10.0769
▁प्रवक्ता	-10.0778
▁अनुगमन	-10.0778
▁कठोर	-10.0789
▁opposition	-10.0792
▁पाएको	-10.0792
▁विज्ञापन	-10.0793
▁implementation	-10.0793
▁पक्राउ	-10.0793
कर्मी	-10.0795
▁happy	-10.08
▁प्रकाश	-10.0802
▁materials	-10.0804
▁search	-10.0804
▁जसको	-10.0813
हरूमध्ये	-10.0814
▁स्तर	-10.0816
▁सीमित	-10.0818
▁विदेश	-10.0822
ऊ	-10.0823
▁गरिन्	-10.0826
mer	-10.083
▁अप	-10.0839
टन	-10.084
▁daily	-10.0849
▁rest	-10.0849
ating	-10.0851
▁पदार्थ	-10.0851
▁बीच	-10.0854
ाउँदा	-10.0856
घाट	-10.0856
▁तिमीलाई	-10.0859
▁For	-10.086
▁bodies	-10.0865
▁छवि	-10.0874
▁प्रमाणित	-10.0875
▁अवधि	-10.0877
▁कहाँ	-10.0892
▁सजिलो	-10.0899
▁बिलियन	-10.0904
▁रोजगारी	-10.0904
▁तिमीहरूलाई	-10.0907
karan	-10.0908
भो	-10.0919
▁writing	-10.0922
▁changed	-10.0925
▁आकार	-10.0926
्रा	-10.0927
▁पुग्न	-10.093
▁अन्तर	-10.0933
▁Health	-10.0934
▁सम्झनु	-10.0936
▁२१	-10.0939
ab	-10.0948
▁द्वन्द्व	-10.0949
ाउँछ	-10.095
Do	-10.0952
▁additional	-10.0952
बार	-10.0956
jastai	-10.096
ियर	-10.096
▁revenue	-10.096
▁implemented	-10.0962
ped	-10.0963
▁होटल	-10.0965
▁क्षति	-10.0965
▁खाद्य	-10.0965
▁State	-10.0971
▁गति	-10.0976
पति	-10.0976
स्थानीय	-10.0984
▁४०	-10.0985
▁$1	-10.0987
▁गर्छु	-10.0988
▁bill	-10.0992
▁फि	-10.0992
khel	-10.0996
कुल	-10.0999
▁न्यायाधीश	-10.1
▁board	-10.1001
▁फल	-10.1004
▁कर्जा	-10.1006
▁बढ्दै	-10.1007
▁गरें	-10.1012
▁पार्टीका	-10.1016
▁developed	-10.1021
▁17	-10.1025
▁छनौट	-10.1044
▁section	-10.1044
▁example	-10.1044
्रो	-10.1045
▁खेलमा	-10.1048
▁Con	-10.1049
▁July	-10.1055
▁बोर्ड	-10.1056
▁pain	-10.1057
▁प्रश्वास	-10.1059
▁houses	-10.1062
▁गणतन्त्र	-10.1063
▁पत्नी	-10.1063
wo	-10.1063
▁vehicles	-10.1068
▁छोड	-10.1075
िलो	-10.1076
▁gone	-10.1076
aun	-10.1077
नाम	-10.1077
गन	-10.1077
tic	-10.108
▁प्रयोगकर्ता	-10.1083
▁bad	-10.1083
खु	-10.1086
by	-10.1088
▁buy	-10.1093
▁खोज	-10.1093
▁कोठा	-10.1103
▁song	-10.1104
sle	-10.1106
▁separate	-10.1108
▁democratic	-10.1108
▁manager	-10.1109
▁previous	-10.1109
▁गुनासो	-10.111
न्छ	-10.1115
▁wrong	-10.1117
▁Se	-10.1118
▁federal	-10.112
▁farmers	-10.112
▁खेती	-10.113
rama	-10.113
▁प्रगति	-10.1131
▁शि	-10.1148
▁13	-10.1153
▁playing	-10.1153
sammako	-10.1158
कार्य	-10.1163
▁कम्पनीले	-10.1163
▁informed	-10.1165
था	-10.1166
▁Pakistan	-10.1166
▁बैठकमा	-10.1169
▁प्रवृत्ति	-10.1169
relating	-10.1176
क्षेत्र	-10.1177
▁Hospital	-10.1182
▁","(2)	-10.1182
▁अथवा	-10.1182
▁साल	-10.1191
▁सम्पादन	-10.1191
बजार	-10.1192
▁शाखा	-10.1193
▁active	-10.1197
▁late	-10.1197
ान	-10.1197
▁submitted	-10.1204
▁टो	-10.1206
▁middle	-10.121
ft	-10.121
माथिको	-10.1213
▁release	-10.1217
त्यस्तै	-10.122
▁Ho	-10.1222
▁सपना	-10.1226
▁मालिक	-10.123
▁कार्यसम्पादन	-10.1236
▁d	-10.124
Ba	-10.1246
gaun	-10.1248
▁२४	-10.1248
tama	-10.1251
▁bus	-10.1251
▁assistance	-10.1252
सको	-10.1254
▁Po	-10.1257
▁व्यक्तिको	-10.1266
Most	-10.1269
By	-10.1271
▁नियुक्त	-10.1273
▁sure	-10.1275
▁shown	-10.1278
▁develop	-10.1284
▁whose	-10.1285
ding	-10.13
्नुहोस्	-10.13
▁क्षेत्रका	-10.1302
▁Mar	-10.1303
▁जनतालाई	-10.1303
▁त्रि	-10.1304
▁type	-10.1305
▁especially	-10.1306
▁25	-10.1309
▁capacity	-10.131
▁provision	-10.1313
▁दिनुभयो	-10.1314
▁global	-10.1317
▁सरकारलाई	-10.1317
▁अभिभावक	-10.1319
▁Bha	-10.132
ff	-10.132
पाल	-10.1327
▁आर	-10.1332
purwa	-10.1333
▁भारतको	-10.1336
▁तथ्य	-10.1341
▁थालेको	-10.1343
rai	-10.1351
▁घट	-10.1354
▁तिमीले	-10.1356
▁सर्वोच्च	-10.1357
▁बग	-10.1357
time	-10.1358
▁प्रारम्भिक	-10.1361
ङ्क	-10.1363
ञ्ज	-10.1369
▁October	-10.1375
▁institution	-10.1377
▁स्वामित्व	-10.1378
▁प्रा	-10.1382
सिया	-10.1385
▁कमजोर	-10.1388
hun	-10.1388
Sa	-10.1388
▁Ko	-10.1388
▁सहायक	-10.139
taka	-10.1394
▁physical	-10.1398
▁met	-10.1398
▁पुर्	-10.1399
▁भन्नुहुन्छ	-10.14
सम्मका	-10.1401
▁talk	-10.1402
red	-10.1402
▁संघर्ष	-10.1408
algayat	-10.1409
▁medical	-10.141
▁हुनेछन्	-10.1411
▁पाकिस्तान	-10.1411
▁निवेदन	-10.1415
▁nature	-10.1417
▁धारणा	-10.1417
▁enter	-10.1425
▁parents	-10.1427
▁­	-10.1428
▁en	-10.1429
▁carry	-10.1438
Maoist	-10.1439
▁चोट	-10.144
▁V	-10.1441
▁rural	-10.1443
▁festival	-10.1447
▁हर	-10.1448
▁credit	-10.1448
▁राजधानी	-10.1451
▁North	-10.1454
▁कार्यालयमा	-10.1455
▁passed	-10.1455
▁ल्याउने	-10.1457
▁हतियार	-10.1462
yata	-10.1463
▁commercial	-10.1463
▁affected	-10.1464
▁ओली	-10.1465
▁ग्राहक	-10.1466
▁violence	-10.1468
▁बढ्दो	-10.1468
▁running	-10.1471
▁रेडियो	-10.1472
▁राजनीति	-10.1472
▁spent	-10.1474
▁सत्ता	-10.1474
▁ex	-10.1478
ल्स	-10.1482
वाट	-10.1483
▁प्या	-10.1487
▁<	-10.149
▁similar	-10.1497
▁तोकिएको	-10.1499
▁conditions	-10.1501
▁पर्	-10.1505
fer	-10.1506
▁संगठन	-10.1506
▁knowledge	-10.1515
ard	-10.1526
for	-10.1527
▁break	-10.153
▁remain	-10.1531
११	-10.1531
▁नगरी	-10.1533
▁corruption	-10.1533
▁u	-10.1534
▁ask	-10.1537
▁तरिका	-10.1537
▁सम्	-10.1537
झैं	-10.1538
▁देखा	-10.1539
▁त्यति	-10.154
▁happened	-10.1542
▁नष्ट	-10.1543
wadi	-10.1544
्यु	-10.1548
तामा	-10.1549
▁स्टक	-10.155
▁वटा	-10.1552
▁single	-10.1554
▁games	-10.1555
▁specified	-10.1555
▁पर्दा	-10.1557
▁try	-10.1559
▁क्रम	-10.156
▁save	-10.1567
ेपछि	-10.1569
ler	-10.1569
▁Vice	-10.1572
▁Shah	-10.1579
लिङ	-10.1579
jit	-10.158
▁सम्भव	-10.1581
ita	-10.1584
▁color	-10.1586
▁गर्नुहुन्छ	-10.1586
lagayat	-10.1586
jar	-10.1587
▁महत्त्वपूर्ण	-10.1589
१२	-10.1593
▁हरि	-10.1596
▁included	-10.1597
▁१००	-10.1598
▁bar	-10.1599
▁फर्म	-10.1602
▁tourism	-10.1603
▁आलोचना	-10.1605
▁निरन्तर	-10.1606
▁चिन	-10.1607
▁structure	-10.1607
▁providing	-10.1607
▁समन्वय	-10.1609
kul	-10.1612
▁अंश	-10.1615
▁कार्ड	-10.162
दर	-10.1623
▁परमेश्वरको	-10.1625
▁Foreign	-10.1627
▁अनुरोध	-10.1628
▁मतदान	-10.1633
▁क्षेत्रीय	-10.164
▁सञ्जाल	-10.1641
▁submit	-10.1643
ence	-10.1644
▁पूर्वाधार	-10.1644
▁Lo	-10.1653
▁Madhes	-10.1656
▁निर्यात	-10.1658
▁loss	-10.1659
▁test	-10.166
tor	-10.1662
▁चेतावनी	-10.1662
▁जी	-10.1664
way	-10.1668
रूपमा	-10.167
ley	-10.1672
ाउँछन्	-10.1675
▁जिल्लाको	-10.1676
▁सङ्केत	-10.1681
▁released	-10.1681
fu	-10.1682
▁हित	-10.1682
फि	-10.1685
▁प्रधान	-10.1688
▁Rule	-10.1692
▁गिरफ्तार	-10.1692
Why	-10.1693
▁प्रवाह	-10.1698
▁प्रदेश	-10.17
karta	-10.1701
▁hope	-10.1702
▁प्रशिक्षण	-10.1703
▁victims	-10.1703
van	-10.1704
क्क	-10.1705
▁फु	-10.1707
lar	-10.1707
▁द्वारा	-10.1708
Our	-10.1722
▁बजे	-10.1722
▁उम्मेदवार	-10.1727
mb	-10.1731
▁allowed	-10.1735
▁निर्	-10.1737
▁text	-10.1738
▁favor	-10.1743
हार	-10.1746
▁VDC	-10.1747
समा	-10.1749
sion	-10.1751
▁sell	-10.1759
ीका	-10.176
▁भइसकेको	-10.1762
▁पशु	-10.1768
tel	-10.1769
▁West	-10.1771
रण	-10.1775
▁dead	-10.1778
▁operate	-10.1778
▁Corporation	-10.1779
▁सङ्गीत	-10.1785
▁शर्त	-10.1788
▁sold	-10.1788
▁citizens	-10.1788
▁जान्छ	-10.1791
▁easy	-10.1795
Ra	-10.1808
▁fiscal	-10.1809
▁institutions	-10.181
▁personal	-10.1811
▁document	-10.1813
▁वर्णन	-10.1814
▁रूप	-10.1817
bai	-10.1817
harusanga	-10.1826
▁आनन्द	-10.183
pat	-10.1831
▁दिनमा	-10.1831
लको	-10.1831
▁term	-10.1834
▁लाभ	-10.1834
▁supply	-10.1839
तो	-10.184
▁effective	-10.184
▁persons	-10.1841
9	-10.1842
▁धितोपत्र	-10.1842
una	-10.1846
▁stand	-10.1846
ure	-10.185
▁दायित्व	-10.1852
रुपमा	-10.1854
▁appropriate	-10.1855
अगाडि	-10.1856
तपाईँले	-10.1858
que	-10.1861
▁option	-10.1865
▁शैक्षिक	-10.1866
निया	-10.1868
▁विभाजन	-10.1869
▁रुपैया	-10.1874
mat	-10.1879
खेल	-10.1883
▁earth	-10.189
ving	-10.1891
▁कहिले	-10.1891
▁anti	-10.1895
▁nine	-10.1898
▁results	-10.1898
▁मौका	-10.1904
set	-10.1905
hara	-10.1906
विश्व	-10.1913
सार	-10.1917
▁मिटर	-10.1917
▁सञ्चालक	-10.1922
▁evidence	-10.1925
chhe	-10.1926
sin	-10.1928
▁जनताले	-10.1928
aka	-10.1939
▁पाएका	-10.194
▁dispute	-10.1943
▁entered	-10.1944
क्रम	-10.1945
▁झन्डै	-10.1946
▁registered	-10.1947
त्ति	-10.1948
दे	-10.195
▁जहाज	-10.1953
▁भै	-10.1954
ors	-10.196
काल	-10.1961
ker	-10.1964
▁पहल	-10.1964
▁सिद्धान्त	-10.1969
▁certain	-10.1971
▁बार	-10.1973
ise	-10.1973
उनका	-10.1974
▁And	-10.1974
▁discussion	-10.1974
▁rise	-10.1975
▁सकारात्मक	-10.1979
bari	-10.198
▁थाल	-10.1982
▁विद्युत	-10.1983
▁injured	-10.1984
rat	-10.1986
शक्ति	-10.1995
tya	-10.2
यन	-10.2004
▁temple	-10.2005
▁programmes	-10.2006
▁मन्त्रालयले	-10.2012
▁English	-10.2015
कले	-10.2022
▁तुलनामा	-10.2023
chok	-10.2026
▁राखिएको	-10.2028
राज्य	-10.2028
▁November	-10.2031
▁कन्	-10.2031
▁पोष्ट	-10.2032
ship	-10.2033
▁fall	-10.2033
▁wanted	-10.2034
▁receive	-10.2035
▁जनसंख्या	-10.2037
prasad	-10.2037
chal	-10.2038
माओवादी	-10.204
ास	-10.2042
छौ	-10.2042
▁सहज	-10.2044
uri	-10.205
▁लाग्यो	-10.205
▁appear	-10.2059
▁युरोप	-10.2062
▁Post	-10.2064
▁विमानस्थल	-10.2066
दोस्रो	-10.2067
▁एकल	-10.2068
▁success	-10.2069
nam	-10.2074
▁worked	-10.2075
▁Gurung	-10.2076
▁fight	-10.2077
rakh	-10.2077
▁प्राकृतिक	-10.2079
▁certificate	-10.2084
मार्ग	-10.2084
▁style	-10.2089
▁contact	-10.2092
संगै	-10.2094
▁दण्ड	-10.2098
जिल्ला	-10.2099
▁act	-10.2105
▁progress	-10.2109
▁Chairman	-10.211
▁विधि	-10.211
▁घुम	-10.2111
▁बाहेक	-10.2112
tro	-10.2119
द्र	-10.2122
om	-10.2125
्ला	-10.2127
bri	-10.2128
▁commission	-10.2134
▁सचेत	-10.2135
तिनीहरू	-10.2135
abhi	-10.2136
▁प्रचलित	-10.214
bir	-10.2145
ath	-10.2146
▁धार्मिक	-10.2151
chahin	-10.2152
▁भे	-10.2157
न्द्र	-10.2158
▁camp	-10.2164
▁makes	-10.2164
car	-10.2167
▁प्रारम्भ	-10.2171
▁गणना	-10.2175
dra	-10.2177
ieko	-10.2181
party	-10.2188
▁Ne	-10.2191
प्रधानमन्त्री	-10.2191
▁internal	-10.2193
▁आफूले	-10.2194
▁whole	-10.2194
▁जग	-10.2194
पूर्वक	-10.2201
▁January	-10.2202
▁weeks	-10.2203
▁base	-10.2205
▁टा	-10.2205
म्यान	-10.2211
मुनि	-10.2211
far	-10.2213
नेपालको	-10.2214
▁टिकट	-10.2218
▁स्वीकृति	-10.2223
▁सल्लाह	-10.2226
▁प्रसारण	-10.2227
▁गे	-10.223
star	-10.2233
रमा	-10.224
sun	-10.2243
्नुपर्छ	-10.2247
▁रगत	-10.2248
▁yesterday	-10.2248
▁बाबु	-10.225
▁Asia	-10.2251
▁Bhattarai	-10.2252
▁एकजना	-10.2252
▁पूँजी	-10.2252
धा	-10.2253
yal	-10.2254
▁नियुक्ति	-10.2261
िट	-10.2263
दान	-10.2264
▁मुलुकमा	-10.2264
▁चौ	-10.2273
▁parts	-10.2276
▁फोटो	-10.228
tion	-10.2282
▁सङ्ख्या	-10.2284
cy	-10.2284
राजा	-10.2288
थ्यो	-10.2288
Police	-10.2289
was	-10.2293
nt	-10.2293
▁modern	-10.2294
▁respect	-10.2295
▁[	-10.2297
▁March	-10.2298
▁कविता	-10.2299
▁programme	-10.23
▁परमप्रभुको	-10.2302
▁named	-10.2302
▁प्रतिबन्ध	-10.2302
▁चिकित्सा	-10.2305
▁हट	-10.2311
chau	-10.2312
▁Japan	-10.2312
एफ	-10.2313
▁फर्क	-10.2315
त्मक	-10.2315
Don	-10.2317
▁सफलता	-10.232
▁खाता	-10.232
tre	-10.2321
▁पहाड	-10.2323
▁जबकि	-10.2324
▁thinking	-10.2327
अर्को	-10.2328
nan	-10.2332
▁exchange	-10.2333
▁player	-10.2333
▁elected	-10.2334
▁चिया	-10.2335
▁उमेर	-10.2336
▁उदाहरण	-10.2339
बारी	-10.2341
▁nations	-10.2342
ाएका	-10.2342
▁All	-10.2342
▁टे	-10.2346
ाव	-10.2348
्यौं	-10.235
▁states	-10.2353
▁लिए	-10.2363
vo	-10.2367
▁पुग्ने	-10.237
▁हस्तान्तरण	-10.2372
▁City	-10.2372
▁भनिन्छ	-10.2373
▁साधारण	-10.2374
▁हालै	-10.2374
▁include	-10.2375
बिना	-10.2383
▁तरिकाले	-10.2383
▁ahead	-10.2384
▁स्थायी	-10.2384
▁आफैं	-10.2388
▁एन्ड	-10.239
ward	-10.2396
▁turn	-10.2397
▁charge	-10.24
जुन	-10.2401
▁Service	-10.2413
निक	-10.2413
राष्ट्रिय	-10.2416
▁राख	-10.2416
ायो	-10.2423
▁क्रियाकलाप	-10.2424
raja	-10.2428
▁video	-10.2429
▁space	-10.243
▁powers	-10.2433
ik	-10.2433
▁context	-10.2441
dhar	-10.2444
yar	-10.2449
▁series	-10.2449
िंग	-10.2459
▁urged	-10.246
▁पसल	-10.2462
▁सँग	-10.2462
Likewise	-10.2463
▁50	-10.2465
ची	-10.2465
▁रुपैयाँ	-10.2466
▁तराई	-10.2466
Such	-10.2467
shri	-10.2469
ally	-10.2471
▁बासिन्दा	-10.248
▁policies	-10.2483
▁कम्प्युटर	-10.2484
▁sons	-10.2488
▁lower	-10.2492
▁राख्नु	-10.2492
▁changes	-10.2495
▁चर्चा	-10.2496
▁War	-10.2497
▁responsible	-10.2497
uni	-10.25
▁relationship	-10.25
िनी	-10.2501
▁विरोधी	-10.2501
▁leading	-10.2501
▁Ti	-10.2505
▁carried	-10.2505
▁ठहर	-10.2512
ेक	-10.2513
▁उत्कृष्ट	-10.2513
▁sales	-10.2513
विहीन	-10.2513
desh	-10.2517
▁सधैँ	-10.2517
▁सम्भावित	-10.2527
▁प्रतिलिपि	-10.2532
▁वाणिज्य	-10.2534
ale	-10.2534
yang	-10.2534
▁distribution	-10.254
▁हवाई	-10.2541
▁clean	-10.2543
▁Mi	-10.2544
▁infrastructure	-10.2545
hat	-10.255
▁ministry	-10.2555
than	-10.256
▁accord	-10.2561
▁ताल	-10.2561
▁हडताल	-10.2563
based	-10.2565
िज	-10.2568
▁माया	-10.2572
▁व्याख्या	-10.2572
▁गर्नुभएको	-10.258
▁sexual	-10.2582
वल	-10.2589
sit	-10.2589
▁विशेषज्ञ	-10.2591
ोन	-10.2593
▁संसद	-10.2595
dur	-10.2596
▁path	-10.2596
▁popular	-10.2596
▁कृष्ण	-10.2598
hit	-10.261
▁Washington	-10.2612
▁यसमा	-10.2613
▁shot	-10.2614
▁airport	-10.2615
ele	-10.2623
▁Education	-10.2623
▁शा	-10.2625
▁बै	-10.2627
af	-10.2629
▁Jo	-10.2635
hin	-10.2644
ज्ञ	-10.2645
▁संस्थाको	-10.2645
▁request	-10.2646
▁विश्लेषण	-10.2646
▁न्युयोर्क	-10.2646
▁सूर्य	-10.2648
तु	-10.2648
▁प्रचार	-10.265
नारायण	-10.265
▁presented	-10.2651
▁शीर्षक	-10.2652
किन	-10.2653
chhi	-10.2654
▁बढाउने	-10.2655
▁America	-10.2656
मिल	-10.2662
▁benefit	-10.2664
▁समान	-10.2665
▁conduct	-10.2666
▁मुक्त	-10.2669
▁विशेषता	-10.2669
गरी	-10.267
▁समितिका	-10.2671
▁evening	-10.2671
▁समुदाय	-10.2672
▁मौसममा	-10.2675
▁महत्व	-10.2676
▁भोग	-10.2681
▁August	-10.2686
▁खेल्न	-10.2688
sko	-10.2689
▁२२	-10.2692
▁अल्	-10.2694
▁बनाए	-10.2694
▁अभि	-10.2696
▁धनी	-10.2696
uda	-10.2701
परि	-10.2705
▁operating	-10.271
▁gas	-10.2711
▁प्रतिज्ञा	-10.2716
▁ra	-10.2717
▁गाविस	-10.2726
dri	-10.2726
▁सट्टा	-10.2726
▁marriage	-10.2733
▁throughout	-10.2739
▁गर्नका	-10.2739
▁टेलिभिजन	-10.274
▁थिएनन्	-10.274
lag	-10.2742
िल	-10.2744
द्	-10.2745
▁कटौती	-10.2746
▁मिश्र	-10.2756
▁felt	-10.2758
ef	-10.2761
▁European	-10.2764
▁सेतो	-10.2765
ेशन	-10.2769
▁टु	-10.277
वासी	-10.2772
▁beginning	-10.2774
bin	-10.2775
▁earlier	-10.2776
▁sources	-10.2777
▁जापान	-10.2782
gh	-10.2784
▁wants	-10.2787
▁Jesus	-10.2787
▁तिनीहरूको	-10.2787
iti	-10.2789
▁जित	-10.279
▁बन्ने	-10.2791
▁motor	-10.2792
थे	-10.2792
▁strike	-10.2794
pad	-10.2797
▁occasion	-10.2799
▁जुनसुकै	-10.2802
▁multi	-10.2803
▁joint	-10.2805
▁नेकपा	-10.2806
▁however	-10.2807
▁२३	-10.281
▁परिषद्	-10.2811
▁जोन	-10.2812
आई	-10.2813
▁documents	-10.2814
▁survey	-10.2817
▁Pra	-10.2817
▁फा	-10.2821
▁चिकित्सक	-10.2823
▁St	-10.2826
▁अव	-10.2827
▁School	-10.2828
कुमारी	-10.2831
▁student	-10.2838
▁priority	-10.2838
▁स्वागत	-10.2838
जन्य	-10.284
▁रहन्छ	-10.284
▁positive	-10.2842
ach	-10.2846
्री	-10.2848
▁इच्छा	-10.2854
▁बम	-10.2855
▁damage	-10.2858
▁साइट	-10.2864
▁domestic	-10.2866
▁उपत्यका	-10.2869
▁residents	-10.2873
▁सामान	-10.2878
▁पाप	-10.2879
▁हल	-10.2892
▁टिम	-10.2893
▁मल	-10.2895
▁वैज्ञानिक	-10.2905
▁टोलीले	-10.2908
फो	-10.2913
▁everything	-10.2918
▁पुनर्निर्माण	-10.2927
▁भविष्य	-10.2927
▁तोकिए	-10.2929
कको	-10.2929
▁मुद्रा	-10.293
▁गर्छौं	-10.2931
Of	-10.2933
▁उपाय	-10.2937
▁sea	-10.2939
▁She	-10.2943
▁X	-10.2945
▁headquarters	-10.2946
व्य	-10.2946
▁सहभागिता	-10.2948
िदिए	-10.2949
▁साहित्य	-10.2956
▁काममा	-10.2956
▁हुनाले	-10.2956
Only	-10.2957
▁limited	-10.2962
▁माथिल्लो	-10.2963
▁proposed	-10.2965
▁shows	-10.2974
▁आत्म	-10.2976
▁Fa	-10.2979
sai	-10.2979
▁टाउको	-10.2979
▁निकायले	-10.2979
श्	-10.2981
▁2007	-10.2985
term	-10.2985
▁नसकेको	-10.2989
▁directly	-10.299
▁Dahal	-10.2991
ities	-10.2992
▁कतिपय	-10.2993
bina	-10.2996
▁तपाईंले	-10.2997
▁Group	-10.2997
▁फूल	-10.3002
गि	-10.3003
▁agreed	-10.3004
▁प्राप्ताङ्क	-10.3007
▁someone	-10.3008
▁window	-10.3013
▁check	-10.3014
▁ढोका	-10.3015
▁cities	-10.3016
▁उहाँको	-10.3017
▁m	-10.3018
अन्य	-10.3019
ेट	-10.3024
\	-10.3026
▁पुष्टि	-10.3026
▁म्या	-10.3028
▁appointed	-10.3031
▁network	-10.3031
narayan	-10.3043
त्यहाँ	-10.3044
▁doesn	-10.3045
▁छौ	-10.3046
lung	-10.3047
▁direction	-10.305
▁spread	-10.3054
pul	-10.3057
▁firm	-10.3058
zi	-10.3059
▁धम्की	-10.306
▁पत्रिका	-10.3063
▁संस्करण	-10.3066
▁promotion	-10.3071
▁हावा	-10.3071
▁successful	-10.3074
लिया	-10.3077
gra	-10.3085
ilai	-10.3089
▁fell	-10.309
▁स्थित	-10.3091
▁conducted	-10.3099
bel	-10.3101
Other	-10.3105
od	-10.3107
▁rupees	-10.3107
ole	-10.3108
▁बहु	-10.3112
▁विस्तृत	-10.3113
▁प्रवर्द्धन	-10.3116
▁begun	-10.3119
▁मिस	-10.3122
▁कोरिया	-10.3122
▁Constituent	-10.3123
▁annual	-10.3126
▁अनुमतिपत्र	-10.3126
net	-10.3128
▁walk	-10.3131
▁एकता	-10.3132
nama	-10.3164
▁भागमा	-10.3172
▁बच्चा	-10.3175
्यौ	-10.3183
▁मुख	-10.3186
wai	-10.3192
▁prime	-10.3192
bichko	-10.3199
▁paper	-10.3202
▁literature	-10.3205
▁किसान	-10.3207
▁Poudel	-10.3208
▁स्थितिमा	-10.3213
क्र	-10.3213
▁शैली	-10.3213
Meanwhile	-10.3216
▁हिंसा	-10.3218
▁देशका	-10.3222
▁इजाजतपत्र	-10.3224
▁claimed	-10.3228
▁Sha	-10.3231
▁मध्ये	-10.3231
▁गइरहेको	-10.3232
▁remove	-10.3238
▁कस्तो	-10.324
▁चासो	-10.3242
▁मेल	-10.3242
▁संसार	-10.3244
▁उल्लेखनीय	-10.3246
लगायतको	-10.3246
▁travel	-10.3247
▁फुट	-10.3247
▁justice	-10.3249
▁fourth	-10.325
▁तपाईंको	-10.325
▁बिमा	-10.325
Those	-10.3251
▁Mohamed	-10.3253
▁approval	-10.3253
▁professional	-10.3253
▁di	-10.3254
फ्	-10.3257
▁becoming	-10.3259
▁hear	-10.3262
▁Ya	-10.3265
▁हिजो	-10.3269
▁परिणत	-10.3269
▁छाप	-10.3271
▁कसैलाई	-10.3271
▁स्वतन्त्रता	-10.3272
▁minutes	-10.3275
▁भन्सार	-10.3278
▁धु	-10.3278
▁पेट	-10.3279
tika	-10.3283
ेन्ट	-10.3285
▁=	-10.329
▁यसरी	-10.3294
dam	-10.3299
हुन	-10.3302
▁agricultural	-10.3307
dhu	-10.3309
nuparne	-10.331
▁इस्राएलका	-10.3318
महा	-10.332
▁सबैले	-10.3322
▁filed	-10.3323
त्य	-10.3323
▁गुरु	-10.3325
▁सम्झ	-10.3326
▁त्यस्ता	-10.3326
▁regional	-10.3326
▁रुप	-10.3328
▁मर्मत	-10.333
▁लगभग	-10.3331
▁agencies	-10.3331
यसैगरी	-10.3331
▁आयोजित	-10.3332
▁हेर्ने	-10.3334
▁रणनीति	-10.3336
▁दिनको	-10.3338
▁लाल	-10.3339
▁runs	-10.3348
द्द	-10.3348
▁बृद्धि	-10.3353
▁किलोमिटर	-10.3355
कम	-10.3357
kshetra	-10.336
▁सञ्झ्याल	-10.336
▁maintain	-10.3361
▁शाह	-10.3364
सेन	-10.3367
कमा	-10.337
▁विभागले	-10.3375
sammaka	-10.3376
▁जसमा	-10.3376
▁Central	-10.3379
▁जय	-10.3383
res	-10.3383
▁pass	-10.339
▁रहन	-10.3393
▁Pokhara	-10.3394
rah	-10.3397
लाइन	-10.3399
▁देख्न	-10.34
▁यात्रु	-10.3402
side	-10.3403
KATHMANDU	-10.3404
▁जानु	-10.3404
▁estimated	-10.3408
▁fair	-10.3413
चन	-10.3414
ुपर्छ	-10.3414
▁carrying	-10.3415
▁विपक्षी	-10.3421
▁भेला	-10.3426
▁शहरमा	-10.343
ig	-10.343
Earlier	-10.3431
▁royal	-10.3433
▁mouth	-10.3434
▁instead	-10.3434
अप	-10.3441
▁except	-10.3442
▁दर्शन	-10.3447
▁industries	-10.3447
▁produced	-10.3449
▁reduce	-10.3452
▁राखेर	-10.3458
जल	-10.3462
चर	-10.3464
▁drug	-10.3468
▁limit	-10.3474
▁review	-10.3475
▁कम्पनीको	-10.3481
▁कोइराला	-10.3482
Whether	-10.3486
▁लिमिटेड	-10.3488
▁regular	-10.3491
▁murder	-10.3493
▁Gu	-10.3496
▁largest	-10.3496
▁यसका	-10.3496
▁प्रकार	-10.3497
bhai	-10.3498
▁December	-10.3499
▁debate	-10.35
bit	-10.35
▁थालेका	-10.3502
▁मिनेट	-10.3505
ati	-10.351
▁मानिसले	-10.3512
▁majority	-10.3513
▁model	-10.3515
▁Pi	-10.3517
▁सभापति	-10.352
tur	-10.3521
▁b	-10.3525
▁साझेदारी	-10.3526
▁convention	-10.353
▁idea	-10.3531
▁नभई	-10.3533
tale	-10.3535
▁जरुरी	-10.3538
मिन	-10.3539
▁तथ्याङ्क	-10.3541
▁Korea	-10.3543
▁पर्न	-10.3544
्दैन	-10.3551
▁29	-10.3553
▁संस्थान	-10.3555
▁religious	-10.3557
▁launched	-10.3564
del	-10.3566
▁traditional	-10.357
▁बनाएर	-10.3574
▁मार	-10.3574
▁"’	-10.3575
▁Fund	-10.3577
ina	-10.3578
▁interview	-10.3582
▁table	-10.3584
▁तनाव	-10.3587
▁generation	-10.3589
mana	-10.359
▁We	-10.3592
▁सुन्दर	-10.3593
▁बुझ्न	-10.3601
▁Home	-10.3601
▁answer	-10.3603
▁February	-10.3604
Mo	-10.3606
▁अदालतमा	-10.3611
ako	-10.3611
▁अन्त्यमा	-10.3616
▁Mu	-10.3616
law	-10.3618
▁Company	-10.3618
लले	-10.3621
▁spoke	-10.3621
▁write	-10.3628
▁allow	-10.3628
▁patients	-10.3631
▁white	-10.3634
▁cultural	-10.3636
▁औद्योगिक	-10.364
▁Narayan	-10.364
▁हुनुपर्ने	-10.3642
▁पालन	-10.3647
▁सकिँदैन	-10.3651
छौं	-10.3652
▁६०	-10.3654
▁north	-10.366
▁चरण	-10.3661
▁खाने	-10.3664
▁amendment	-10.3669
▁निर्वाचित	-10.3669
्यू	-10.3669
▁हुनसक्छ	-10.367
hy	-10.3671
▁moving	-10.3671
▁भौतिक	-10.3673
▁tourists	-10.3675
▁offer	-10.3675
▁चाँडै	-10.3678
▁protection	-10.3681
सहितका	-10.3682
▁भो	-10.3687
▁पुग	-10.3687
संयुक्त	-10.3694
▁नगद	-10.3695
इन	-10.3696
▁राणा	-10.37
Let	-10.37
ple	-10.37
ture	-10.3702
म्बा	-10.3702
kama	-10.3702
सभा	-10.3703
jal	-10.371
▁पार्टीको	-10.3716
▁पूजा	-10.3718
▁consensus	-10.3718
दल	-10.372
१६	-10.3728
Another	-10.3729
vin	-10.373
ुभयो	-10.3733
▁आधुनिक	-10.3735
wari	-10.3736
wat	-10.3739
Su	-10.3758
▁गर्	-10.3758
चु	-10.3763
वर्ष	-10.3763
▁चलाउन	-10.3768
▁नो	-10.3768
्छु	-10.3771
tai	-10.3771
▁shares	-10.3775
▁author	-10.3778
गे	-10.3789
▁बिस्तारै	-10.3789
▁कोर	-10.3792
▁वास्तवमा	-10.3794
▁सदा	-10.3794
ाइरहेका	-10.3794
▁June	-10.3798
उक्त	-10.3801
▁potential	-10.3805
dia	-10.3806
▁complete	-10.3807
can	-10.3808
chin	-10.3808
ुक	-10.3808
▁योग्य	-10.3809
▁stock	-10.3809
▁John	-10.3809
ep	-10.381
मय	-10.3812
king	-10.3816
▁command	-10.3817
▁21	-10.3817
smet	-10.3819
▁मै	-10.3819
▁आकाश	-10.382
▁insurance	-10.3822
प्रत्येक	-10.3823
डर	-10.3824
ee	-10.3825
▁industrial	-10.383
▁magazine	-10.3832
▁offering	-10.3832
shu	-10.3833
▁बाढी	-10.3836
harubata	-10.3838
▁Rana	-10.3839
▁थ	-10.3842
▁improve	-10.3843
▁निम्न	-10.3847
kumari	-10.3849
भारत	-10.3851
▁Deuba	-10.3851
▁सेन्ट	-10.3851
▁दृष्टिकोण	-10.3852
▁Public	-10.3856
▁direct	-10.3857
तिमी	-10.3866
▁परम्परागत	-10.3867
▁People	-10.3873
▁पढ	-10.3873
ेड	-10.3876
pla	-10.388
▁गयो	-10.3881
▁बहस	-10.3883
▁size	-10.3885
▁२८	-10.3885
माया	-10.3886
ikaran	-10.3889
▁सालमा	-10.3891
▁compared	-10.3891
▁Federation	-10.3899
▁तल्लो	-10.3899
▁सफा	-10.3901
▁ruling	-10.3901
स्थ	-10.3902
▁गएका	-10.3906
▁यन्त्र	-10.3907
पक्ष	-10.3908
▁upon	-10.3912
my	-10.3913
▁ऐनको	-10.3915
▁Bush	-10.3915
▁क्यान्सर	-10.3916
khe	-10.3918
▁vice	-10.392
▁बेल	-10.3923
▁CPN	-10.3927
kur	-10.3928
मले	-10.3928
▁existing	-10.393
▁दोषी	-10.3932
▁गुण	-10.3932
▁गाह्रो	-10.3933
▁entire	-10.3933
▁Chandra	-10.3936
hor	-10.3938
▁केटी	-10.3938
▁चन्द्र	-10.3939
▁पारेको	-10.3942
▁प्रकट	-10.3948
▁दिएर	-10.3948
▁Valley	-10.395
▁वेब	-10.395
▁vote	-10.3951
ins	-10.3951
ira	-10.3954
nda	-10.3955
Pa	-10.3956
▁friend	-10.3958
Go	-10.3961
▁speech	-10.3964
ide	-10.3966
▁नियमावली	-10.3967
▁Supreme	-10.3967
▁preparing	-10.3967
▁collection	-10.3969
बेला	-10.397
▁नं	-10.397
▁समक्ष	-10.3971
kali	-10.3972
▁birth	-10.3972
▁क्रमशः	-10.3973
▁cricket	-10.3976
▁सुनिश्चित	-10.3979
▁त्यसै	-10.3982
▁कर्म	-10.3985
▁सोध	-10.3986
नियम	-10.3987
▁ब्या	-10.3989
▁demanded	-10.3989
▁माछा	-10.3992
▁हटाउन	-10.3992
ाइरहेको	-10.3995
▁समुद्र	-10.3996
▁अनलाइन	-10.3999
ल्याण्ड	-10.3999
▁Ru	-10.4001
▁dance	-10.4003
▁पृथ्वी	-10.4008
jhain	-10.4008
▁अर्ब	-10.401
▁phone	-10.4011
छा	-10.4014
sim	-10.4021
anta	-10.4022
cent	-10.4022
tir	-10.4024
▁prevent	-10.4025
▁राजमार्ग	-10.4026
▁1,	-10.4027
▁औसत	-10.4029
fal	-10.403
▁२६	-10.4032
▁प्रतिबद्धता	-10.4033
▁religion	-10.4039
▁true	-10.4042
▁भूकम्प	-10.4043
▁removed	-10.4044
ङ्गा	-10.4048
▁तिनका	-10.4049
tam	-10.4052
▁status	-10.4054
▁परिचालन	-10.406
▁एकै	-10.406
▁आयोगले	-10.4062
▁export	-10.4064
▁flow	-10.4064
▁session	-10.4065
▁coach	-10.4069
▁चे	-10.4071
फाइल	-10.4076
▁मार्फत	-10.4077
▁scored	-10.4081
▁caused	-10.4083
▁ever	-10.4083
▁कार्यालयले	-10.4084
▁चित्र	-10.4084
▁निकासी	-10.4085
ns	-10.4085
▁average	-10.4088
▁चलिरहेको	-10.409
wata	-10.4094
sthal	-10.4095
▁कस	-10.4095
▁worth	-10.4096
▁साम	-10.4096
फे	-10.4098
▁रह्यो	-10.4099
▁design	-10.41
▁सोधे	-10.4101
▁judge	-10.4102
pp	-10.4104
samet	-10.4105
▁फो	-10.4106
▁ball	-10.4109
▁identity	-10.4112
wang	-10.4114
tho	-10.4114
चोक	-10.4114
chandra	-10.4117
▁परम्परा	-10.4119
▁League	-10.4123
▁online	-10.4126
▁२००६	-10.413
▁reasons	-10.4132
▁sun	-10.4136
▁कानूनी	-10.4138
▁पर्वत	-10.4138
▁seek	-10.4139
▁followed	-10.414
▁पढ्न	-10.4141
नलाई	-10.4142
शन	-10.4142
▁पृष्ठ	-10.4143
क्त	-10.4143
▁२७	-10.4143
▁पुस्ता	-10.4144
▁manner	-10.4147
gai	-10.4149
▁कतै	-10.4151
बस	-10.4155
▁देखाउने	-10.4156
▁प्रबन्धक	-10.4157
▁लामा	-10.416
▁functions	-10.416
▁वर्षा	-10.4161
भाव	-10.4162
▁expenditure	-10.4167
ny	-10.4168
▁implement	-10.417
▁Day	-10.417
▁लिनु	-10.4171
gram	-10.4173
▁कामदार	-10.4173
▁देखाउन	-10.4174
ult	-10.4174
ved	-10.4178
▁happen	-10.4179
्छौं	-10.4184
muni	-10.4186
▁initiative	-10.4187
▁loans	-10.4188
▁प्ले	-10.4192
▁वक्तव्य	-10.4194
▁registration	-10.4196
▁Je	-10.4197
▁छुट्टै	-10.42
▁अवैध	-10.4202
pak	-10.4204
▁धेरैजसो	-10.4205
▁अनुहार	-10.4217
▁KC	-10.4223
▁format	-10.4224
▁Press	-10.4229
▁alone	-10.4238
ator	-10.4242
ुर	-10.4243
▁की	-10.4247
gri	-10.4251
▁अवसरमा	-10.4251
ze	-10.4253
▁mountain	-10.4254
cing	-10.4257
▁screen	-10.4258
▁Du	-10.4258
▁municipality	-10.4258
▁इन्टरनेट	-10.4258
▁tea	-10.4259
▁लगाए	-10.4259
▁educational	-10.4266
mil	-10.4267
atma	-10.4267
▁stage	-10.4268
▁hotel	-10.4268
्थे	-10.4272
ानी	-10.4273
yam	-10.4274
स्व	-10.4275
▁establishment	-10.4275
▁गर्दैन	-10.4277
▁desire	-10.4278
▁understanding	-10.428
▁wrote	-10.4282
▁अदालतले	-10.4284
▁नामक	-10.4285
▁चौथो	-10.4286
khar	-10.429
▁cash	-10.4292
▁demands	-10.4293
▁Kha	-10.4295
kala	-10.4303
▁पहाडी	-10.4304
▁सबैलाई	-10.4312
ema	-10.4316
▁interests	-10.4319
▁बज	-10.4325
शु	-10.4326
▁डेटा	-10.4329
▁Director	-10.433
राष्ट्र	-10.4331
▁डु	-10.4332
▁अस्पतालमा	-10.4333
▁पार्क	-10.4338
▁धारा	-10.4344
▁नाउँ	-10.4344
▁खुट्टा	-10.4347
▁highest	-10.4347
auna	-10.4348
▁बाँध	-10.4351
karma	-10.4352
sthan	-10.4352
▁सब	-10.4353
िकरण	-10.4353
▁chairman	-10.4354
▁प्रावधान	-10.4356
▁सदरमुकाम	-10.4356
▁Hu	-10.4359
▁safe	-10.436
चौर	-10.4361
▁फोल्डर	-10.4362
▁उपस्थिति	-10.4365
३०	-10.4368
▁cadres	-10.4371
dharma	-10.4374
▁worship	-10.4377
ताले	-10.4378
ेन्स	-10.4381
▁teachers	-10.4381
Could	-10.4381
▁Europe	-10.4382
▁चलाउने	-10.4382
▁प्रशंसा	-10.4383
▁अमेरिकामा	-10.4384
▁क्षण	-10.4386
▁सांस्कृतिक	-10.4386
चन्द्र	-10.439
▁औ	-10.4392
▁निष्कर्ष	-10.4392
ल्ट	-10.4398
mul	-10.4403
ska	-10.4404
▁target	-10.4404
▁कारखाना	-10.4404
▁पर्दैन	-10.4406
▁साँच्चिकै	-10.4406
▁आएर	-10.4409
▁goes	-10.4413
▁weapons	-10.4417
▁पुगेका	-10.4421
▁sign	-10.4422
end	-10.4422
▁स्मृति	-10.4423
▁आत्मा	-10.4423
्ट	-10.4425
▁प्रतियोगिता	-10.4425
▁24	-10.4426
tarf	-10.4427
Today	-10.4427
पात	-10.4427
▁duty	-10.4429
▁customers	-10.443
नौ	-10.4432
▁सदन	-10.4433
▁महिनामा	-10.4435
▁40	-10.4435
naka	-10.4437
bho	-10.4438
▁Union	-10.4438
▁decades	-10.4438
▁हुनुपर्दछ	-10.4443
▁गएर	-10.4444
▁questions	-10.4446
▁सांसद	-10.4448
▁सुन्न	-10.4451
फ्ट	-10.4452
dhara	-10.4455
▁easily	-10.4455
▁huge	-10.4455
सक	-10.4456
▁अत्यन्त	-10.4459
▁feet	-10.446
▁agency	-10.446
win	-10.4462
▁बोलपत्र	-10.4462
▁लडाइँ	-10.4464
हन	-10.4469
▁क्वा	-10.4469
▁struggle	-10.4469
▁विजेता	-10.4472
▁examination	-10.4473
▁thousands	-10.4474
UML	-10.4475
लमा	-10.4475
▁समूहले	-10.4477
▁मोबाइल	-10.4479
▁लगाइएको	-10.448
▁कार्	-10.4481
▁ठेगाना	-10.4482
▁operated	-10.4486
▁रहे	-10.4486
▁destroyed	-10.4487
▁suffering	-10.4488
१८	-10.449
▁door	-10.4492
▁प्रशस्त	-10.4494
▁एक्स	-10.4499
्वा	-10.4501
ena	-10.4505
धन	-10.4507
▁छोटो	-10.4508
▁दरबार	-10.451
▁गल्ती	-10.451
मको	-10.4513
▁opening	-10.4516
▁औंला	-10.4519
▁खारेज	-10.4522
िना	-10.4528
ज्यू	-10.4528
▁roads	-10.4528
नेस	-10.453
मुखी	-10.4534
▁बस्ती	-10.4538
१५	-10.4541
▁एकपटक	-10.4542
ung	-10.4545
▁मारे	-10.4545
▁focus	-10.4545
▁ऐतिहासिक	-10.4548
▁सर्वेक्षण	-10.4549
Where	-10.4554
▁completely	-10.4555
▁la	-10.4557
हीन	-10.4557
▁follow	-10.4558
Two	-10.4558
विरुद्धको	-10.4558
ाहा	-10.4558
▁communication	-10.4559
▁सहर	-10.456
▁२९	-10.4561
सुन	-10.4562
▁star	-10.4562
rit	-10.4563
▁couple	-10.4565
▁दीर्घकालीन	-10.4566
▁despite	-10.4573
▁importance	-10.4574
▁south	-10.4578
न्डर	-10.4579
▁ल्याएको	-10.4582
▁computer	-10.4587
पद	-10.4588
▁ensure	-10.4589
▁moved	-10.4592
▁बीचमा	-10.4594
▁showed	-10.4597
▁मौलिक	-10.4599
▁...	-10.46
▁मङ्गलबार	-10.4603
▁गतिविधि	-10.4604
▁हासिल	-10.4604
▁जरिवाना	-10.4609
०००	-10.4611
▁किसिमको	-10.4614
▁खोल	-10.4617
भु	-10.462
▁personnel	-10.462
थि	-10.4622
▁crowd	-10.4622
▁इन्धन	-10.4623
▁Inc	-10.4623
ag	-10.4624
▁remains	-10.4625
▁काठ	-10.4628
▁गरिए	-10.4628
▁नभए	-10.4628
▁रातो	-10.4629
▁परे	-10.463
▁drinking	-10.4631
▁५००	-10.4634
▁येशू	-10.4635
मल	-10.4638
▁ग्या	-10.4638
▁Prachanda	-10.464
▁चाहने	-10.4641
▁थियौं	-10.4642
▁टुक्रा	-10.4643
▁विकासको	-10.4645
भित्रको	-10.4647
bhari	-10.4647
▁task	-10.4649
▁सेप्टेम्बर	-10.465
▁Club	-10.4653
▁जीवित	-10.4654
▁मर्	-10.4658
▁पीडा	-10.4659
▁songs	-10.4674
▁स्थिर	-10.4674
विन	-10.4677
▁दुर्घटना	-10.4678
▁चरणमा	-10.4696
mathiko	-10.47
une	-10.47
thyo	-10.47
▁commitment	-10.4701
nawa	-10.4702
▁थप्नुभयो	-10.4703
▁tradition	-10.4709
ल्ला	-10.4711
त्ता	-10.4711
▁बढेर	-10.4716
▁मधेश	-10.4718
ists	-10.4719
मूलक	-10.4719
▁die	-10.4719
▁clothes	-10.4721
▁expensive	-10.4724
▁युग	-10.4725
▁हुलाक	-10.4727
mor	-10.4734
▁पति	-10.4739
▁बढ्न	-10.474
पट्टि	-10.474
घा	-10.4744
▁ढुङ्गा	-10.4746
▁यसै	-10.475
रका	-10.4753
टु	-10.4754
▁अद्यावधिक	-10.4756
▁खासगरी	-10.4757
▁संवाद	-10.4757
▁bringing	-10.4758
समक्ष	-10.4759
▁शिखर	-10.4759
▁spokesman	-10.4761
▁असल	-10.4763
विना	-10.4768
yukta	-10.4768
▁aid	-10.4773
of	-10.4776
साथ	-10.4784
▁teaching	-10.4787
▁दान	-10.4788
्सले	-10.479
▁हातमा	-10.4791
pratiko	-10.4792
▁committed	-10.4796
▁सुपर	-10.4796
▁union	-10.4798
▁लिखित	-10.48
▁नाप	-10.4803
▁continued	-10.4804
bhe	-10.4806
▁charges	-10.4806
रहेको	-10.4807
▁पुगे	-10.4812
▁fuel	-10.4814
▁arrived	-10.4816
िको	-10.4817
▁काठमाडौँ	-10.4817
▁response	-10.482
▁साता	-10.4821
▁संवैधानिक	-10.4822
ाका	-10.4824
ila	-10.4825
▁turned	-10.4825
▁directed	-10.4826
ँदा	-10.4827
▁prepare	-10.4828
ula	-10.4829
धी	-10.4832
tes	-10.4833
ph	-10.4835
▁red	-10.4836
▁claim	-10.484
adi	-10.4841
ालय	-10.4842
▁sound	-10.4844
back	-10.4844
▁East	-10.4847
▁हस्तक्षेप	-10.4849
▁खेल्ने	-10.4849
▁लिएका	-10.485
artha	-10.4855
ीहरू	-10.4856
tta	-10.4856
▁दोष	-10.4857
ुन	-10.4857
Select	-10.486
▁Ki	-10.486
▁fast	-10.4862
▁गर्व	-10.4863
▁अक्टोबर	-10.4863
one	-10.4869
▁अञ्चल	-10.487
ds	-10.4876
danda	-10.4878
सम	-10.4879
ड्	-10.4885
▁signed	-10.4888
▁उपस्थित	-10.489
field	-10.4893
▁Karki	-10.4894
▁host	-10.4895
▁Pe	-10.4896
▁display	-10.4897
नर	-10.4897
rup	-10.4904
▁बसोबास	-10.4905
▁holding	-10.4905
▁club	-10.4906
▁हुन्थ्यो	-10.4906
▁ड्राइभर	-10.4909
▁folder	-10.4911
▁moment	-10.4914
▁opinion	-10.4914
▁गुरुङ	-10.4916
yak	-10.4917
भाग	-10.4918
▁प्रतिस्थापन	-10.4921
New	-10.4922
▁po	-10.4922
▁देवी	-10.4926
▁सक्दछ	-10.4927
les	-10.4928
dho	-10.4928
ction	-10.4929
▁Delhi	-10.493
gya	-10.4934
▁गहिरो	-10.4937
यू	-10.4937
▁सेवाको	-10.4938
क्या	-10.4938
▁accept	-10.4941
सेवा	-10.4943
्याउने	-10.4944
▁representatives	-10.4944
▁हेर्दा	-10.4945
र्थ	-10.4951
▁possibility	-10.4952
▁kill	-10.4957
▁As	-10.4959
चित	-10.4964
▁एफ	-10.4965
▁बुद्ध	-10.4966
gen	-10.4967
▁पदाधिकारी	-10.497
ser	-10.4978
▁अरब	-10.498
▁आह्वान	-10.4981
▁वर्षदेखि	-10.4981
यसका	-10.4994
▁निजामती	-10.4998
▁parliament	-10.4999
लर	-10.5
मेल	-10.5
sho	-10.5004
hang	-10.5012
▁determined	-10.5017
ेले	-10.5018
▁जेल	-10.502
ani	-10.5023
▁अघिल्लो	-10.5023
▁Administration	-10.5025
▁mobile	-10.5027
▁nearly	-10.5034
hen	-10.5035
▁mid	-10.5036
▁झु	-10.5037
▁leaving	-10.5038
▁चिन्ह	-10.5039
ेली	-10.5043
▁मानिसको	-10.5043
▁नारा	-10.5045
▁constitutional	-10.5045
nk	-10.5047
▁Car	-10.5047
50	-10.5048
▁youth	-10.505
▁looked	-10.5052
▁events	-10.5052
▁matters	-10.5056
▁आवास	-10.5056
कला	-10.5059
िसकेको	-10.5061
▁original	-10.5063
▁दिवस	-10.5069
▁सिट	-10.507
▁वायुसेवा	-10.5071
ैं	-10.5072
▁परिस्थिति	-10.5072
▁traffic	-10.5073
▁सर्वसाधारण	-10.5073
▁faith	-10.5074
▁weak	-10.5075
▁arrangements	-10.5078
▁खोल्न	-10.5082
-1	-10.5084
▁त्यसमा	-10.5086
यसै	-10.5086
▁Ju	-10.5087
ञ्च	-10.5088
eki	-10.5088
UPI	-10.5092
▁steps	-10.5094
bol	-10.5096
▁सञ्चालित	-10.5102
▁लेखा	-10.5105
▁remember	-10.5107
▁alternative	-10.5108
फर	-10.5108
▁step	-10.511
▁equipment	-10.5112
▁सिक	-10.5113
▁believed	-10.5113
▁broken	-10.5115
▁obtained	-10.5115
▁केवल	-10.5116
▁constructed	-10.5116
बास	-10.5116
▁ship	-10.5119
▁संयोजक	-10.5121
▁कार्यमा	-10.5121
rashtra	-10.5122
▁चाहन्छन्	-10.5123
lok	-10.5124
ुल	-10.5124
▁presence	-10.5124
▁स्थल	-10.5125
Con	-10.5134
Last	-10.5141
▁स्तरमा	-10.5141
उप	-10.5141
▁ट्रयाक	-10.5141
bahu	-10.5142
▁television	-10.5142
India	-10.5143
▁एड	-10.5144
▁सन्दर्भ	-10.5145
▁सशस्त्र	-10.5147
▁authorities	-10.5147
▁sense	-10.515
▁म्याद	-10.5155
▁शक्तिशाली	-10.5157
शील	-10.5159
▁जसलाई	-10.5159
ast	-10.516
▁error	-10.5161
▁lakh	-10.5161
ite	-10.5161
▁स्वयं	-10.5165
▁आधारभूत	-10.5168
point	-10.5169
▁नाच	-10.5174
▁phase	-10.5176
ris	-10.5176
▁लोकप्रिय	-10.5176
▁ताजा	-10.5181
▁त्यसले	-10.5186
izing	-10.5187
यसमा	-10.5188
▁levels	-10.519
▁जाँदा	-10.519
▁चाहनुहुन्छ	-10.5196
▁त्यसो	-10.5197
Despite	-10.5199
sewa	-10.52
aunu	-10.5201
▁रह	-10.5205
▁behavior	-10.5205
▁शंका	-10.5208
0,000	-10.5208
jhi	-10.5209
▁चट्टान	-10.5211
▁मानिसहरु	-10.5211
▁consider	-10.5218
▁eating	-10.5223
▁लड	-10.5229
:-	-10.5229
▁सीप	-10.523
▁double	-10.5232
▁ended	-10.5233
▁hearing	-10.5233
esh	-10.5234
▁कानुनी	-10.5234
▁मानसिक	-10.5237
vir	-10.5237
कन	-10.5238
स्ता	-10.524
▁तु	-10.524
▁standard	-10.5243
▁अनिवार्य	-10.5244
▁division	-10.5244
▁संस्थाले	-10.5246
▁spend	-10.5246
▁Bhandari	-10.5249
▁selling	-10.5251
▁त्यसरी	-10.5251
तीन	-10.5252
▁कार्यविधि	-10.5252
▁बिदा	-10.5253
▁खो	-10.5253
gre	-10.5253
nish	-10.5254
रेट	-10.5256
▁equal	-10.5257
▁April	-10.5258
shakti	-10.526
▁agriculture	-10.5264
च्छ	-10.5265
▁गाई	-10.527
▁मार्	-10.5271
खर	-10.5272
▁बसेको	-10.5275
गल	-10.5275
तः	-10.5276
▁परिभाषा	-10.5277
▁लियो	-10.5279
▁न्यून	-10.5282
ct	-10.5285
hur	-10.5285
sari	-10.5285
▁Va	-10.5286
▁Adhikari	-10.5287
▁फागुन	-10.5287
▁निकाल	-10.5288
ura	-10.5289
▁victory	-10.529
▁कपडा	-10.5293
purva	-10.5294
तालाई	-10.5295
sabha	-10.5296
▁loan	-10.5296
sco	-10.5296
▁provisions	-10.5303
▁चाहिँ	-10.5303
▁planning	-10.5305
सल	-10.531
▁वैदेशिक	-10.531
▁तौल	-10.531
▁serve	-10.5323
▁Har	-10.5325
khan	-10.5326
र्म	-10.5334
▁कुमार	-10.5336
▁sky	-10.5337
▁अन्त	-10.5338
▁लाई	-10.534
▁मोटर	-10.534
▁अर्थतन्त्र	-10.5341
warsha	-10.5346
▁स्टे	-10.5349
▁adopted	-10.5351
▁राजदूत	-10.5352
▁समयसम्म	-10.5355
▁पाइने	-10.5355
▁डब्ल्यूएम	-10.5356
▁Lu	-10.5361
▁novel	-10.5362
▁animals	-10.5363
न्ज	-10.5364
bajar	-10.5365
▁टी	-10.5366
▁राई	-10.5368
▁basic	-10.5369
▁आर्जन	-10.5371
▁बित	-10.5371
▁opportunities	-10.5372
▁बनाइएको	-10.5374
▁career	-10.5374
▁dream	-10.5376
▁छिन्	-10.5379
▁participation	-10.5385
▁cancer	-10.5386
▁माध्यम	-10.5386
▁7.	-10.5386
▁खोज्ने	-10.5387
▁झा	-10.5389
▁permission	-10.5393
इट	-10.5393
▁offices	-10.5394
▁Park	-10.5395
▁लागे	-10.5396
वर्ग	-10.5396
▁सडकमा	-10.5399
▁proper	-10.54
▁चो	-10.5401
्रे	-10.5406
शे	-10.541
▁राखी	-10.5419
▁प्रदूषण	-10.542
▁Finance	-10.5421
१४	-10.5422
▁निरीक्षण	-10.5425
▁प्राधिकरण	-10.5425
khal	-10.5426
▁connection	-10.5431
▁settlement	-10.5433
▁यहूदा	-10.5435
▁approved	-10.5442
▁yourself	-10.5442
▁i	-10.5444
▁function	-10.5446
सकेको	-10.5448
.......	-10.5448
▁क्याम्पस	-10.5448
▁प्रकारका	-10.5449
▁communities	-10.5452
▁३५	-10.5452
बासी	-10.5453
▁takes	-10.5454
▁च्याम्पियन	-10.5456
karmi	-10.5459
▁contained	-10.546
▁कक्ष	-10.546
▁साँझ	-10.5461
▁Rastra	-10.5462
▁लागेका	-10.5463
▁मधेस	-10.5464
▁journey	-10.5465
▁इन्कर्पोरेटिड	-10.5465
if	-10.5468
▁खतरा	-10.5469
▁fees	-10.5475
भे	-10.5476
twa	-10.5476
ट्स	-10.5477
kle	-10.5477
▁Member	-10.5478
▁beautiful	-10.5478
▁रू	-10.5478
मोन	-10.5479
▁park	-10.548
▁जोडा	-10.5485
▁लुगा	-10.5487
▁declared	-10.5488
▁कागज	-10.549
▁देखाउँछ	-10.549
▁उड	-10.5491
▁items	-10.5493
▁receiving	-10.5495
▁मुद्दामा	-10.5497
▁देउवा	-10.5497
paksha	-10.5498
सिस	-10.5499
run	-10.55
▁श्रेणी	-10.5501
▁जम	-10.5502
▁हर्	-10.5502
▁नोट	-10.5503
ok	-10.5504
▁जिम्मेवार	-10.5508
Q	-10.5509
ग्र	-10.5509
▁खाद्यान्न	-10.551
▁परिभाषित	-10.5519
▁कवि	-10.5519
▁Chaudhary	-10.5521
▁east	-10.5521
▁तीव्र	-10.5523
ial	-10.5524
▁reports	-10.5525
▁लक्षित	-10.5527
patti	-10.5527
▁छाला	-10.5529
samu	-10.5533
▁लगायत	-10.5536
रिक	-10.5539
path	-10.5539
anka	-10.554
▁bomb	-10.5542
antar	-10.5543
Nepali	-10.5544
▁यसो	-10.5546
▁stone	-10.555
gun	-10.5554
▁सर्वोत्तम	-10.5555
▁भनेका	-10.5557
▁helped	-10.5557
lekh	-10.5557
algayatka	-10.5558
30	-10.556
▁Management	-10.556
yama	-10.556
▁गर्नेछन्	-10.5561
▁दलित	-10.5563
▁books	-10.5563
ट्टा	-10.5571
मध्य	-10.5574
mari	-10.5574
▁पौडेल	-10.5575
मेट	-10.558
पर्	-10.5582
▁transfer	-10.5582
▁studying	-10.5582
्ती	-10.5589
▁Wa	-10.5589
ण्डा	-10.5592
▁सबभन्दा	-10.5593
▁बनेका	-10.5594
▁मासु	-10.5596
▁सामुदायिक	-10.5597
▁prevailing	-10.5605
▁owner	-10.5605
▁famous	-10.5609
▁प्राथमिक	-10.5611
pashchat	-10.5613
जीवन	-10.5614
▁appears	-10.5615
La	-10.5617
uch	-10.5618
पार्टी	-10.5618
▁पदमा	-10.5621
▁कक्षा	-10.5621
▁महासचिव	-10.5622
हल	-10.5623
▁knew	-10.5623
▁parliamentary	-10.5627
▁देखिने	-10.5628
▁(2)	-10.5628
जित	-10.5628
▁वीर	-10.563
nal	-10.5633
▁सक्छौं	-10.5634
▁discussed	-10.5637
let	-10.5639
▁London	-10.564
▁डाक्टर	-10.5643
▁परिचय	-10.5644
ुपर्ने	-10.5651
▁radio	-10.5654
▁अंक	-10.5655
Also	-10.5656
▁UK	-10.5657
▁विनिमय	-10.5657
des	-10.5659
मत	-10.5661
tak	-10.5662
ेस	-10.5663
ल्या	-10.5664
▁unity	-10.567
▁उपन्यास	-10.5671
▁राय	-10.5675
ions	-10.5675
▁व्यापारी	-10.5678
mus	-10.5679
ंस	-10.5684
▁track	-10.5684
ans	-10.5684
विद्	-10.5687
▁अस	-10.5691
▁labor	-10.5693
▁investors	-10.5699
▁बुद्धि	-10.5699
▁वर्षे	-10.5699
▁डलरको	-10.5702
▁नप	-10.5703
▁भीड	-10.5705
िसकेका	-10.5705
riya	-10.5705
ुहुन्छ	-10.5705
Ro	-10.5706
▁blind	-10.5708
▁रोज	-10.571
apa	-10.5711
पटक	-10.5712
▁Jerusalem	-10.5715
ali	-10.5715
▁brothers	-10.5715
▁राती	-10.5717
बेल	-10.5719
cal	-10.5719
▁लिई	-10.5724
लिक	-10.5729
▁audience	-10.5732
▁truth	-10.5732
▁खास	-10.5733
▁Dev	-10.5739
vid	-10.5741
▁सहकार्य	-10.5743
उनीहरू	-10.5745
▁Asian	-10.5746
epachhi	-10.5748
▁त्रैमासिक	-10.5749
▁cover	-10.5751
दाता	-10.5753
एच	-10.5755
▁pa	-10.5755
▁गराउनु	-10.5757
▁establish	-10.5759
▁sitting	-10.576
▁Hindu	-10.576
▁हृदय	-10.5767
▁significant	-10.5767
▁दशक	-10.5768
▁Institute	-10.577
▁रहनेछ	-10.577
▁निमित्त	-10.5775
▁listen	-10.5778
▁किताब	-10.5779
▁growing	-10.5781
av	-10.5782
▁लुक	-10.5783
madhya	-10.5783
▁article	-10.5784
फल	-10.5787
ोप	-10.5788
▁साह	-10.5788
▁Saptari	-10.5791
ac	-10.5794
▁measures	-10.5794
▁यद्यपि	-10.5796
▁फ्रान्स	-10.5796
▁participate	-10.5797
but	-10.5801
▁doctor	-10.5802
Ja	-10.5802
काम	-10.5804
▁क्लिक	-10.5804
▁Sun	-10.5806
▁बाली	-10.5809
▁कर्मचारीले	-10.5809
▁वडा	-10.581
▁बढ्ने	-10.581
▁race	-10.581
▁बनाउनु	-10.5811
▁नगरेको	-10.5812
▁माओवादीले	-10.5817
▁रूपान्तरण	-10.5818
समय	-10.5819
▁प्रचण्ड	-10.5819
▁ways	-10.582
▁experts	-10.582
▁अभिव्यक्ति	-10.5821
▁चाहन्छु	-10.5821
▁suffer	-10.5824
▁राहत	-10.5825
्व	-10.5825
▁challenge	-10.5826
▁पारे	-10.5828
▁झ्	-10.5835
▁ग्यास	-10.5837
▁होस्ट	-10.5837
कालीन	-10.5839
ice	-10.5839
सिन	-10.584
ाइएका	-10.5841
▁science	-10.5842
▁किशोर	-10.5845
▁names	-10.5851
भूमि	-10.5852
tantra	-10.5853
▁killing	-10.5857
▁नागरिकता	-10.5858
▁योजनाको	-10.5859
▁जात	-10.5862
cre	-10.5863
▁collected	-10.5866
▁duties	-10.5866
▁types	-10.5867
१३	-10.5869
▁स्वार्थ	-10.587
khi	-10.5875
▁complaint	-10.5879
▁कर्मचारीको	-10.5883
▁studies	-10.5884
▁गौतम	-10.5889
▁कुराको	-10.5889
dor	-10.5891
▁alcohol	-10.5894
▁चार्ज	-10.5899
▁प्रोत्साहित	-10.5904
▁विद्यालयमा	-10.5905
▁अनुमोदन	-10.5908
िँदै	-10.591
णी	-10.5912
bat	-10.5912
िड	-10.5913
▁बेलामा	-10.5913
टार	-10.5914
ney	-10.5917
▁sometimes	-10.5918
nepal	-10.5921
ँदै	-10.5921
▁mountains	-10.5923
Co	-10.5925
ाँ	-10.5927
▁युरोपेली	-10.5927
५०	-10.5928
▁arrest	-10.5931
▁आउनु	-10.5934
लामा	-10.5934
▁प्रार्थना	-10.5939
▁blockade	-10.5939
▁whom	-10.594
▁claims	-10.5941
▁मरे	-10.5941
uli	-10.5941
raha	-10.5942
▁inter	-10.5942
▁जातीय	-10.5944
▁ब्रिटिश	-10.595
▁गठबन्धन	-10.5953
laya	-10.5954
▁illegal	-10.5955
!""	-10.5962
पश्चिम	-10.5962
▁धन्यवाद	-10.5963
▁%	-10.5965
▁ma	-10.5967
▁सम्मेलनमा	-10.5967
▁३१	-10.5968
▁चिन्तित	-10.5971
▁दिल्ली	-10.5973
▁remained	-10.5975
▁tree	-10.5977
▁संसदीय	-10.5978
▁zone	-10.5978
▁correct	-10.5978
तन्त्र	-10.5986
▁अधिकारीहरू	-10.5989
थो	-10.5991
िक्स	-10.5992
पश्चात्	-10.5993
pt	-10.5993
▁users	-10.5994
ery	-10.5998
१७	-10.5999
▁payment	-10.5999
▁Pandey	-10.6
▁भाषण	-10.6003
▁wall	-10.6004
टिक	-10.6005
Man	-10.6006
▁योजनामा	-10.6007
▁candidate	-10.6012
म्बर	-10.6013
▁संचालन	-10.6013
mas	-10.6015
▁मौसम	-10.6016
बाबु	-10.6016
kat	-10.6019
ोल	-10.6019
केन्द्र	-10.6021
▁honor	-10.6022
▁लगाएको	-10.6023
▁रचना	-10.6024
▁दर्शक	-10.6026
फोन	-10.6026
▁Ku	-10.6027
बमोजिम	-10.6031
dham	-10.6031
▁ठ	-10.6031
▁कम्युनिष्ट	-10.6032
rupma	-10.6035
▁बैंकले	-10.6036
▁journalists	-10.604
▁रेखा	-10.6041
ken	-10.6041
bor	-10.6046
ical	-10.6047
▁learn	-10.6048
धु	-10.6049
▁agenda	-10.6049
pura	-10.605
▁One	-10.6052
▁पोखरा	-10.6054
ces	-10.6054
▁अर्का	-10.6056
▁route	-10.6056
▁दूध	-10.6059
▁ability	-10.6061
sara	-10.6061
▁साझा	-10.6063
▁plant	-10.6066
▁mis	-10.6067
▁reading	-10.607
▁खेलकुद	-10.6074
षा	-10.6077
▁freedom	-10.6077
▁ve	-10.6078
▁quickly	-10.6079
▁22	-10.6081
About	-10.6081
▁बाबजुद	-10.6084
ाइन	-10.6084
▁Lama	-10.6085
▁नवीकरण	-10.6086
Both	-10.6086
▁markets	-10.6088
▁सम्पदा	-10.6089
▁निःशुल्क	-10.6091
परमप्रभु	-10.6092
qui	-10.6096
▁त्यस्तै	-10.6101
kale	-10.6101
▁अंग	-10.6103
▁व्यक्तिहरू	-10.6104
▁खबर	-10.6105
▁independent	-10.6105
▁Am	-10.6107
More	-10.6108
off	-10.6109
▁भण्डार	-10.611
ctor	-10.611
▁reduced	-10.6111
रीले	-10.6112
▁sports	-10.6114
▁कमी	-10.6115
द्य	-10.6115
▁सन्दर्भमा	-10.6115
यसलाई	-10.6117
sma	-10.6118
▁औपचारिक	-10.612
sita	-10.6121
▁sides	-10.6123
ged	-10.6124
▁afraid	-10.6126
▁either	-10.6126
ालाई	-10.6127
▁fun	-10.6129
▁आधिकारिक	-10.6134
▁normal	-10.6136
uk	-10.6138
▁23	-10.6138
rajya	-10.614
uka	-10.6142
▁दशकमा	-10.6144
▁expenses	-10.6146
ोट	-10.6148
▁विरुद्ध	-10.615
▁सामेल	-10.6155
वत	-10.6157
पछिको	-10.616
▁trust	-10.6162
tara	-10.6166
▁भट्टराई	-10.6169
tang	-10.617
▁छोरो	-10.6176
▁monitoring	-10.6176
dis	-10.6177
▁नाटक	-10.618
ीत	-10.618
यस्ता	-10.6192
यस्तै	-10.6196
▁देखे	-10.6202
▁ministers	-10.6204
▁राज्यको	-10.6204
▁neither	-10.6205
▁Temple	-10.6205
▁उठाउन	-10.6206
▁मुख्यतया	-10.6207
stri	-10.6209
न्न	-10.6209
▁round	-10.621
▁उद्धार	-10.621
▁But	-10.6211
▁soldiers	-10.6214
▁l	-10.6214
उहाँ	-10.6217
संविधान	-10.6217
▁चरित्र	-10.6218
sik	-10.6222
▁चढ	-10.6223
ative	-10.6225
▁तिनले	-10.6225
▁essential	-10.6226
सरकार	-10.6227
krishna	-10.6231
▁includes	-10.6232
▁नजिकै	-10.6233
▁married	-10.6233
▁filled	-10.6234
tiko	-10.6239
▁France	-10.6243
▁कडा	-10.6245
्ग	-10.6245
uma	-10.6246
▁latest	-10.6246
▁भएकोले	-10.6248
▁benefits	-10.6249
▁सल्लाहकार	-10.625
लय	-10.6252
▁profit	-10.6253
▁Maha	-10.6253
धान	-10.6254
gol	-10.6257
▁driver	-10.626
▁milk	-10.6262
▁unit	-10.6264
▁इन	-10.6264
Who	-10.6265
▁else	-10.6266
▁climate	-10.6266
थी	-10.6267
▁महासंघ	-10.6269
▁केन्द्रमा	-10.6269
▁News	-10.6271
▁appointment	-10.6272
ाऊ	-10.6272
First	-10.6275
▁तुरुन्तै	-10.628
▁दिनेछ	-10.6281
sti	-10.6283
▁कार्यरत	-10.6283
▁longer	-10.6285
कृष्ण	-10.6286
▁drink	-10.6289
▁effect	-10.6293
▁Britain	-10.6293
▁श्रेष्ठले	-10.6295
▁ha	-10.6295
तपाईँ	-10.6298
▁क्षतिपूर्ति	-10.6299
ibata	-10.6299
युद्ध	-10.6303
cu	-10.6306
anusar	-10.6307
pas	-10.6309
▁_	-10.631
▁waste	-10.6313
▁स्वीकृत	-10.6314
▁Sept	-10.6317
चो	-10.632
mark	-10.6322
▁There	-10.6328
▁rates	-10.633
▁Justice	-10.6331
▁नारायण	-10.6331
▁relief	-10.6335
▁खानेपानी	-10.6335
▁palace	-10.6338
▁छन	-10.634
▁Sri	-10.6343
▁Chi	-10.6344
▁town	-10.6345
राजनीतिक	-10.6345
▁बसेर	-10.6346
▁माघ	-10.6348
दैन	-10.6351
▁मात्रामा	-10.6355
▁$2	-10.6358
▁otherwise	-10.6362
▁card	-10.6362
▁effort	-10.6363
▁crime	-10.6363
▁produce	-10.6364
▁youths	-10.6364
mala	-10.6364
▁विशिष्ट	-10.6365
▁उद्देश्यले	-10.6365
▁बताइएको	-10.6368
▁साक्षी	-10.6368
▁मानिसलाई	-10.6374
पट्टी	-10.6376
▁(1),	-10.6378
kram	-10.6378
▁expansion	-10.6378
▁understood	-10.6378
▁मुलुकको	-10.6379
▁powerful	-10.638
wina	-10.6381
▁वै	-10.6381
गृह	-10.6384
▁eye	-10.6385
▁Tri	-10.6387
vishwa	-10.6388
ल्ल	-10.6389
▁साझेदार	-10.6391
▁Judah	-10.6397
▁Fi	-10.6397
लेख	-10.6398
ैया	-10.6398
▁purchase	-10.6401
▁मानक	-10.6402
ks	-10.6403
ोले	-10.6403
▁probably	-10.6404
▁यथार्थ	-10.6404
▁discussions	-10.6405
pai	-10.6406
▁ठोस	-10.6406
▁जीवनमा	-10.6412
▁River	-10.6413
▁perform	-10.6415
कासाथै	-10.6416
▁गर्नुपर्नेछ	-10.6416
क्रि	-10.642
▁council	-10.6423
▁जुट	-10.6423
▁चाहना	-10.6426
▁तलब	-10.6426
▁selection	-10.6429
Is	-10.6433
▁clearly	-10.6433
ieka	-10.6434
▁जित्न	-10.6438
▁ढल	-10.644
▁दुइ	-10.644
▁showing	-10.6441
▁लगाएर	-10.6443
▁लोड	-10.6448
▁goals	-10.6448
asa	-10.6448
iraheko	-10.6449
▁films	-10.6459
▁सामान्यतया	-10.6459
▁विद्युत्	-10.6459
▁संगीत	-10.6459
jam	-10.646
gho	-10.646
▁सरल	-10.646
bre	-10.6461
▁views	-10.6461
▁योग्यता	-10.6461
▁girl	-10.6467
▁1979	-10.6467
▁Democratic	-10.6469
▁doubt	-10.647
एका	-10.6473
अमेरिकी	-10.6477
▁approach	-10.6477
▁forth	-10.6483
▁माटो	-10.6485
▁remaining	-10.6485
▁रेड	-10.6487
फु	-10.6489
▁fish	-10.6493
▁लगानीकर्ता	-10.6493
▁भारतमा	-10.6493
▁spirit	-10.6496
▁वाल	-10.6496
sahitka	-10.65
▁suffered	-10.6501
▁range	-10.6504
▁सधैं	-10.6505
▁सहकारी	-10.6508
yaun	-10.6511
▁files	-10.6512
▁पुर	-10.6516
▁Russia	-10.652
जसले	-10.6522
▁बलपूर्वक	-10.6523
कृत	-10.6526
▁चक्र	-10.6528
आइ	-10.6529
▁n	-10.653
िनेछ	-10.6531
▁customs	-10.6531
▁expect	-10.6532
ps	-10.6533
jaya	-10.6534
wasi	-10.6534
▁प्रसिद्ध	-10.6534
light	-10.6536
▁remote	-10.6537
tain	-10.6538
▁भोट	-10.6538
ste	-10.6538
भारतीय	-10.6538
alai	-10.6538
▁KP	-10.654
nes	-10.6541
र्फ	-10.6542
ries	-10.6543
tol	-10.6544
▁विशाल	-10.6545
प्त	-10.6545
tti	-10.6548
▁नोक्सानी	-10.6551
▁ro	-10.6551
▁Village	-10.6554
प्प	-10.6556
न्य	-10.6561
ised	-10.6562
Be	-10.6563
रीको	-10.6564
रह	-10.6567
▁ward	-10.6569
▁नर	-10.6571
▁picture	-10.6571
ार्थ	-10.6572
pin	-10.6572
▁cooperation	-10.6574
▁जिम्मा	-10.6578
▁planned	-10.6579
hra	-10.658
▁below	-10.6584
▁गरेनन्	-10.6584
्सको	-10.6586
्ड	-10.6588
प्रमुख	-10.6589
▁उनीहरु	-10.6591
▁सहमत	-10.6592
केट	-10.6592
lie	-10.6593
▁monarchy	-10.6596
▁निकायको	-10.6598
Every	-10.6599
▁debt	-10.6601
ight	-10.6601
▁His	-10.6608
▁scheduled	-10.6613
▁valley	-10.6615
▁संकेत	-10.6615
नीले	-10.6617
▁बदल	-10.6617
wali	-10.6617
▁bit	-10.6617
▁delay	-10.662
lit	-10.6621
▁महेन्द्र	-10.6623
inter	-10.6624
▁Egypt	-10.6629
▁बर्ष	-10.663
पुल	-10.663
▁Hi	-10.6632
don	-10.6635
फी	-10.6637
▁discuss	-10.6637
▁न्यूनतम	-10.6638
▁शुद्ध	-10.6639
▁officers	-10.6645
▁रंग	-10.6645
▁उजुरी	-10.6645
▁मस्यौदा	-10.6646
ther	-10.6646
▁product	-10.6648
▁Bill	-10.6649
nka	-10.665
kri	-10.6651
20	-10.6655
aya	-10.6655
▁पठाउन	-10.6658
▁hour	-10.6659
yi	-10.666
▁bridge	-10.6663
▁थाल्यो	-10.6666
▁हरियो	-10.6667
पोर्ट	-10.6668
nya	-10.6673
board	-10.6674
ration	-10.6676
▁सहयोगी	-10.668
lip	-10.6683
▁operations	-10.6683
▁मुद्रण	-10.6687
सेल	-10.6688
▁net	-10.6689
▁costs	-10.6689
▁कल्पना	-10.669
▁पठाउने	-10.669
▁till	-10.6691
▁संयोजन	-10.6692
Le	-10.6693
▁बनाएका	-10.6693
▁खेत	-10.6695
▁hurt	-10.6698
▁Sah	-10.6699
stan	-10.6699
▁लगायतका	-10.6702
▁भनिएको	-10.6702
▁add	-10.6702
शो	-10.6703
▁Kamal	-10.6705
लोक	-10.6708
प्	-10.6708
सामु	-10.671
▁1.	-10.6711
▁west	-10.6711
▁solve	-10.6714
▁doctors	-10.6715
▁विकासमा	-10.6716
▁इरान	-10.6717
▁पुर्याउने	-10.6717
rang	-10.6721
▁punishment	-10.6722
▁नेताहरू	-10.6724
▁अलग	-10.6729
▁व्य	-10.6733
बन	-10.6735
▁Affairs	-10.6735
▁समग्र	-10.6736
▁England	-10.6737
▁teams	-10.6745
▁singer	-10.6747
▁एच	-10.6748
क्का	-10.6748
▁श्रीमती	-10.6758
ming	-10.6758
शास्त्र	-10.6759
▁फुल	-10.6759
Z	-10.676
ned	-10.6761
चीन	-10.6762
▁ho	-10.6763
▁caste	-10.6765
▁एकीकृत	-10.6767
▁केसी	-10.6768
bil	-10.6769
▁ओलीले	-10.677
▁अस्तित्व	-10.6773
▁उपलब्धि	-10.6773
म्बु	-10.6773
▁server	-10.6777
▁developing	-10.6778
खे	-10.678
bul	-10.6783
▁Local	-10.6789
▁नभएका	-10.6789
यसअघि	-10.6791
▁al	-10.6793
टेल	-10.6793
chaur	-10.6793
▁lived	-10.6793
hai	-10.6794
▁फोहोर	-10.6796
▁lo	-10.6799
▁श्रृंखला	-10.68
▁मानिसहरूको	-10.68
▁कर्मचारीलाई	-10.6801
▁keeping	-10.6802
▁हिमाल	-10.6802
▁बाटोमा	-10.6803
▁निलम्बन	-10.6803
▁Royal	-10.6805
▁dry	-10.6806
▁जनसङ्ख्या	-10.6808
▁balance	-10.6809
Ha	-10.681
▁चिसो	-10.6811
▁राखेका	-10.6811
arko	-10.6813
▁क्र	-10.6815
▁पुनर्	-10.6816
▁strategy	-10.6819
▁Internet	-10.6819
▁concern	-10.682
▁दुष्ट	-10.6821
▁ब्रा	-10.6822
जीले	-10.6822
▁जलवायु	-10.6823
sto	-10.6825
▁मार्च	-10.6825
▁क्रस	-10.6826
▁प्रतिष्ठान	-10.6827
क्षा	-10.6827
▁दिनुहोस्	-10.6827
▁हकमा	-10.6829
योग	-10.6831
▁सकेनन्	-10.6831
▁sad	-10.6835
▁नाकाबन्दी	-10.6836
▁sale	-10.6837
▁accident	-10.6837
▁संघका	-10.6839
भल	-10.684
▁एजेन्सी	-10.6841
▁therefore	-10.6842
▁समायोजन	-10.6843
पथ	-10.6844
▁स्टा	-10.6845
▁घाटा	-10.6846
▁choose	-10.6849
basi	-10.6852
▁import	-10.6856
bya	-10.6856
▁जीवनको	-10.6857
▁विद्यमान	-10.6857
ara	-10.6857
▁page	-10.6859
▁झण्डा	-10.686
▁मूल्यमा	-10.6861
▁समीक्षा	-10.6865
Stat	-10.6867
Thus	-10.6869
▁particular	-10.6871
▁महिनाको	-10.6871
▁तपाई	-10.6872
▁समाजमा	-10.6872
▁नोभेम्बर	-10.6876
▁recommendation	-10.6877
▁गराएको	-10.6879
▁user	-10.6882
put	-10.6885
▁केपी	-10.6885
▁दास	-10.6887
Me	-10.6888
▁feeling	-10.6889
▁मानिन्छ	-10.6891
▁regarding	-10.6892
▁century	-10.6892
▁छाड	-10.6894
▁बेलायत	-10.6897
air	-10.6897
नेट	-10.6897
▁स्कूल	-10.6899
▁कर्पोरेसन	-10.6899
▁consumers	-10.6899
bhitrai	-10.6906
▁compensation	-10.6907
▁copy	-10.6907
▁spending	-10.6908
▁Ex	-10.6909
स्तर	-10.691
रूप	-10.6912
16	-10.6912
▁biggest	-10.6915
नामा	-10.6916
ुभएको	-10.6917
▁अवरोध	-10.6919
dol	-10.692
▁2006	-10.692
kra	-10.6921
▁एक्लै	-10.6922
▁advance	-10.6924
▁Khadka	-10.6928
anko	-10.6932
mes	-10.6933
▁दै	-10.6934
ेकी	-10.6934
▁आयोगको	-10.6937
sis	-10.6939
patha	-10.694
▁citizenship	-10.6942
▁फर्किए	-10.6942
▁college	-10.6942
bro	-10.6943
▁अख्तियार	-10.6943
▁expression	-10.6946
pana	-10.6946
▁talking	-10.6946
▁method	-10.6946
▁winning	-10.6947
▁टाँस	-10.6948
लगायतले	-10.695
▁slow	-10.695
▁शत्रु	-10.6953
idi	-10.6957
▁scene	-10.6958
▁प्रतिशतले	-10.6958
▁गर्यौं	-10.6961
Instead	-10.6961
▁Area	-10.6963
rin	-10.6963
▁gradually	-10.6965
एमाले	-10.6966
रत	-10.6967
▁armed	-10.6971
म्म	-10.6971
▁एयर	-10.6974
▁फ्याँक	-10.6975
▁reform	-10.6975
▁Iran	-10.6982
▁पूर्वी	-10.6983
pada	-10.6984
chhin	-10.6985
▁influence	-10.6986
र्य	-10.6987
▁तस्वीर	-10.6987
Under	-10.6995
Provided	-10.6998
▁Bu	-10.6999
wit	-10.6999
lia	-10.7002
▁तोकेको	-10.7006
▁fee	-10.701
▁जटिल	-10.7013
▁मनो	-10.7014
▁appeal	-10.7015
▁maintained	-10.7016
▁vi	-10.702
Here	-10.702
ल्ली	-10.7023
▁सके	-10.7026
वेल	-10.7029
▁contribution	-10.7031
thu	-10.7031
▁सहित	-10.7035
mano	-10.7035
▁हैन	-10.7038
झैँ	-10.7038
▁poverty	-10.7039
▁app	-10.7044
talai	-10.7046
▁facility	-10.7046
▁branch	-10.7051
स्प	-10.7055
▁अनुसूची	-10.7056
▁उत्तम	-10.7056
▁थुप्रै	-10.706
▁nuclear	-10.7062
▁दे	-10.7063
▁बिल	-10.7063
▁determine	-10.7064
▁पर्खाल	-10.7065
▁फैल	-10.7065
बाद	-10.7067
niya	-10.7068
▁पोस्ट	-10.7068
▁४५	-10.7069
jiwan	-10.7069
▁शारीरिक	-10.7071
▁सस्तो	-10.7075
▁believes	-10.7077
दक्षिण	-10.7078
▁नभएसम्म	-10.708
▁च्यानल	-10.7081
▁ट्रक	-10.7083
▁Ke	-10.7084
▁cross	-10.7084
▁Project	-10.7085
▁gate	-10.7085
▁empty	-10.7085
mata	-10.7091
▁Academy	-10.7093
▁Christ	-10.7093
▁tourist	-10.7096
यात्रा	-10.7099
▁decisions	-10.7101
▁Gautam	-10.7104
las	-10.7104
▁निर्माता	-10.7108
▁female	-10.7109
▁Chitwan	-10.711
▁इराक	-10.7111
▁चालक	-10.7114
▁नराम्रो	-10.7115
▁Chairperson	-10.7116
महिला	-10.7116
▁मोर्चा	-10.712
िर	-10.7122
▁एशिया	-10.7122
▁कैद	-10.7122
िद	-10.7123
▁comment	-10.7125
▁कुराकानी	-10.7129
▁gives	-10.713
▁Communist	-10.7133
्थ्यो	-10.7133
▁रिस	-10.7134
tko	-10.7138
▁देहायका	-10.7138
gad	-10.7139
▁तालिका	-10.714
▁eastern	-10.714
▁दुख	-10.7146
गढी	-10.715
▁प्रकृति	-10.715
▁काल	-10.7157
▁तत्व	-10.7157
▁Forum	-10.7158
iraheka	-10.7158
समूह	-10.716
ub	-10.7162
our	-10.7162
▁attacks	-10.7166
▁ब्रान्ड	-10.7168
sir	-10.7169
िएपछि	-10.7173
sad	-10.7174
▁रमाइलो	-10.7174
िच	-10.7174
▁तरकारी	-10.7175
विशेष	-10.7175
bak	-10.7177
▁हिस्सा	-10.718
nko	-10.718
work	-10.7181
▁चाहन्छ	-10.7182
▁citizen	-10.7182
▁victim	-10.7183
▁नेतृत्वमा	-10.7183
▁historical	-10.7183
▁बराबर	-10.7184
▁मेडिकल	-10.7187
▁records	-10.7191
▁सर्भर	-10.7191
jyu	-10.7197
▁rich	-10.7197
▁avoid	-10.72
med	-10.7203
jati	-10.7204
lat	-10.7205
▁लगे	-10.7209
िमा	-10.721
Ka	-10.7211
Which	-10.7212
▁association	-10.7216
▁evil	-10.7216
▁पृष्ठभूमि	-10.7218
lli	-10.7219
▁चौधरी	-10.7222
▁त्रिभुवन	-10.7225
anga	-10.7225
▁उत्तरी	-10.7226
ria	-10.7228
▁object	-10.7229
▁Hari	-10.7229
rak	-10.723
खण्ड	-10.723
▁manage	-10.723
▁animal	-10.7231
▁28	-10.7236
jh	-10.724
ट्रो	-10.7241
▁passengers	-10.7242
▁रूख	-10.7243
▁medicines	-10.7244
ala	-10.7246
▁दायरा	-10.7247
▁follows	-10.7248
पर्ने	-10.7248
▁overall	-10.7249
ारी	-10.7249
▁भारतले	-10.7253
२५	-10.7254
Like	-10.7255
▁तिनीहरूका	-10.7255
▁दाहाल	-10.7259
len	-10.7259
▁स्तम्भ	-10.7261
▁grow	-10.7267
▁heavy	-10.7267
▁Forest	-10.7269
वारी	-10.7271
स्टे	-10.7272
▁निज	-10.7274
▁महोत्सव	-10.7275
lay	-10.7275
▁locals	-10.7277
▁अभिलेख	-10.7281
▁नियन्त्रणमा	-10.7284
▁prison	-10.7284
▁कार्यक्रमको	-10.7287
oko	-10.7287
▁90	-10.7289
▁सर्	-10.7289
use	-10.729
वस्तु	-10.729
प्रो	-10.7292
▁बसेका	-10.7293
▁decide	-10.7293
ब्	-10.7294
him	-10.7297
has	-10.7298
▁score	-10.7299
▁अवधारणा	-10.7299
▁raising	-10.73
▁दिंदै	-10.73
वास्तवमा	-10.7302
ras	-10.7303
▁राष्ट्रसंघ	-10.7303
▁सन्तान	-10.7304
ses	-10.7308
▁७०	-10.7308
▁funds	-10.7309
Vi	-10.7314
▁कृपया	-10.7315
▁मल्ल	-10.7315
▁Rights	-10.7316
▁भाडा	-10.7316
oma	-10.7317
बन्दी	-10.7319
▁sister	-10.732
▁consumer	-10.7321
▁निरन्तरता	-10.7323
▁तर्जुमा	-10.7323
ari	-10.7324
जले	-10.7326
▁setting	-10.7334
▁क्रान्ति	-10.7336
▁खट	-10.7337
▁शिकार	-10.7339
▁सान	-10.7339
▁मापदण्ड	-10.7339
▁मधेसी	-10.7344
लका	-10.7344
Ar	-10.7346
▁स्वर	-10.7346
▁supported	-10.7347
▁rain	-10.735
▁नेपाललाई	-10.7351
Na	-10.7351
▁भ्या	-10.7351
▁tomorrow	-10.7351
ाङ	-10.7352
▁बाधा	-10.7354
पहिले	-10.7355
▁आकर्षित	-10.7355
▁sta	-10.7356
संस्था	-10.7359
▁fully	-10.7359
▁primary	-10.7364
Dr	-10.7364
▁Deputy	-10.7367
▁ताकि	-10.7372
▁cold	-10.7373
▁wide	-10.7373
फोर्ड	-10.7373
▁Australia	-10.7378
मेन	-10.7381
▁Biratnagar	-10.7381
tik	-10.7382
िला	-10.7383
▁Trump	-10.7384
▁sectors	-10.7387
▁sweet	-10.7388
▁उपर	-10.7389
▁पञ्च	-10.7392
mad	-10.7393
▁कृति	-10.7394
▁दिगो	-10.7394
▁भइ	-10.7395
jala	-10.7396
▁damaged	-10.7396
▁60	-10.7396
▁सेटिङ	-10.7398
cor	-10.74
▁root	-10.74
▁Bangladesh	-10.7401
प्रा	-10.7401
▁घटेको	-10.7405
adhi	-10.7407
▁मी	-10.7408
▁कामको	-10.7408
rd	-10.7409
▁८०	-10.741
▁collect	-10.7411
▁अन्न	-10.7412
▁Acharya	-10.7414
▁@	-10.7415
सक्ने	-10.7418
lagi	-10.7419
▁ढाँचा	-10.7421
isa	-10.7424
mir	-10.7424
▁announcement	-10.7425
▁सुरुमा	-10.7426
▁ethnic	-10.7428
▁तार	-10.7428
▁चोरी	-10.7429
chit	-10.7429
▁maximum	-10.7432
▁शे	-10.7432
▁डरलाग्दो	-10.7433
▁defeat	-10.744
sum	-10.744
▁संघले	-10.7445
▁farming	-10.7446
▁राजाको	-10.7447
चित्र	-10.7448
▁mean	-10.7448
▁मोड	-10.745
wiruddhako	-10.7451
▁looks	-10.7456
▁केटा	-10.7457
▁Chand	-10.7457
▁खोजिरहेका	-10.7458
ुङ	-10.7462
▁अनुप्रयोग	-10.7465
lap	-10.7466
▁२००५	-10.7467
▁घरेलु	-10.7468
लिस	-10.7468
hune	-10.7468
▁निर्दिष्ट	-10.747
tile	-10.7471
सान	-10.7473
hand	-10.7474
sima	-10.7475
▁improvement	-10.7478
▁दिई	-10.7481
▁दोब्बर	-10.7481
▁Front	-10.7481
श्व	-10.7482
▁शु	-10.7493
▁कार्की	-10.7496
▁TV	-10.7497
15	-10.7497
▁कम्प	-10.7497
▁location	-10.7498
bang	-10.7501
▁concept	-10.7502
▁दलका	-10.7503
AN	-10.7504
▁UN	-10.7505
▁Ltd	-10.7506
▁जुलाई	-10.7506
▁अत्यधिक	-10.7506
▁toward	-10.7506
डिया	-10.7507
▁homes	-10.7507
▁छैनौं	-10.7507
▁Kan	-10.7511
यसैबीच	-10.7512
▁simple	-10.7514
25	-10.7514
हुने	-10.7515
▁गाउँमा	-10.7516
▁बसे	-10.7517
▁failure	-10.7518
▁2005	-10.7519
▁बालक	-10.7521
▁विच्छेद	-10.7522
▁suggested	-10.7524
val	-10.7525
▁manpower	-10.7527
▁स्वस्थ	-10.7529
▁विविध	-10.7532
ट्ट	-10.7533
▁लाग्न	-10.7534
Former	-10.7535
िप	-10.7536
▁सन्तुलन	-10.7538
▁देहाय	-10.7542
lak	-10.7544
▁थापाले	-10.7545
rog	-10.7546
▁कोठामा	-10.7547
▁millions	-10.7548
▁prior	-10.7553
▁विकासका	-10.7556
▁skills	-10.7557
shta	-10.7558
US	-10.7559
▁lose	-10.7559
▁पहिला	-10.7561
▁काट	-10.7564
ez	-10.7567
ekai	-10.7568
▁coordination	-10.7571
्दैनन्	-10.7572
पछिल्लो	-10.7573
▁foot	-10.7576
ini	-10.7576
▁जर्ज	-10.7579
वीर	-10.758
विकास	-10.7589
▁सोचे	-10.7591
▁चाह	-10.7591
▁दिइ	-10.7591
hawa	-10.7591
▁cent	-10.7596
ौली	-10.7598
▁निजको	-10.76
▁sin	-10.76
▁salary	-10.76
▁बताउँदै	-10.7601
▁ट्र	-10.7605
▁box	-10.7606
▁मोडल	-10.7607
▁तय	-10.7609
dhya	-10.7609
▁वचन	-10.7612
▁हिट	-10.7612
▁हाइ	-10.7615
▁exercise	-10.7616
▁दिँदै	-10.7618
poli	-10.7623
ule	-10.7623
▁seeing	-10.7627
▁भन्यो	-10.7627
lad	-10.7627
ified	-10.7627
नीति	-10.7628
ण्	-10.763
▁province	-10.7632
ताल	-10.7632
▁missing	-10.7634
bara	-10.7635
▁dozen	-10.7638
▁प्रान्त	-10.7639
▁पश्चिमी	-10.7643
▁सत्र	-10.7653
्ली	-10.7654
Before	-10.7654
▁offered	-10.7655
न्ध	-10.7659
▁artist	-10.7662
▁म्यान	-10.7663
▁version	-10.7664
lama	-10.7665
▁बन्दुक	-10.7668
▁station	-10.7676
▁confidence	-10.7676
▁सन्धि	-10.7676
DA	-10.7676
▁सम्झना	-10.7677
▁योग	-10.7678
▁साथीहरू	-10.7678
ग्राम	-10.7679
▁स्पर्श	-10.7679
वै	-10.768
▁trouble	-10.7681
▁column	-10.7683
▁विभागका	-10.7683
▁चाहेको	-10.7683
▁असम्भव	-10.7688
yako	-10.7689
Chapter	-10.7689
▁va	-10.7694
▁धो	-10.7694
▁acting	-10.7694
रेन	-10.7695
▁frame	-10.7698
▁आणविक	-10.77
▁मञ्च	-10.77
▁विष्णु	-10.7701
ाउनुहोस्	-10.7702
यल	-10.7707
▁गरीब	-10.7708
▁उपहार	-10.7714
किनभने	-10.7715
▁खडा	-10.7715
▁v	-10.7715
▁मित्र	-10.7717
▁Ve	-10.7718
प्रकाश	-10.7719
▁activity	-10.772
▁procedures	-10.7722
▁repeatedly	-10.7723
over	-10.7725
▁defeated	-10.7728
▁defense	-10.7728
tive	-10.7729
▁ban	-10.773
गान	-10.773
्दो	-10.7731
stra	-10.7734
▁बताउनु	-10.7739
▁गरेकी	-10.7739
▁बेच	-10.774
रलाई	-10.7741
मुक्त	-10.7741
▁Gorkha	-10.7742
▁डलरमा	-10.7742
▁पुरा	-10.7742
▁content	-10.7744
न्च	-10.7747
▁accounts	-10.775
▁agree	-10.7751
▁दिनसम्म	-10.7753
▁नदिने	-10.7753
▁promote	-10.7754
डाँडा	-10.7763
▁गुम	-10.7764
▁teacher	-10.7766
▁आउँदा	-10.7767
▁हेर्नुहोस्	-10.7768
gau	-10.7769
▁ह्या	-10.7769
हरुसँग	-10.7771
ves	-10.7771
▁urban	-10.7775
▁न्यु	-10.7775
lagayatka	-10.7778
▁26	-10.7778
▁aspects	-10.7779
▁बैङ्क	-10.778
▁wearing	-10.7782
▁draw	-10.7786
▁स्वर्ग	-10.7786
▁सुदृढ	-10.7786
▁coordinator	-10.7787
▁trip	-10.7788
▁divided	-10.779
▁ध्वनि	-10.779
▁घटाउन	-10.7794
▁governance	-10.7796
▁बिजुली	-10.7796
▁continues	-10.7801
nako	-10.7801
हेर	-10.7806
▁तत्कालीन	-10.7806
▁reaching	-10.7806
▁परिवारका	-10.7808
▁भिन्नता	-10.7808
सरकारी	-10.7808
▁कमल	-10.7809
बिच	-10.7812
tima	-10.7813
laga	-10.7813
द्धारा	-10.7814
iah	-10.7819
under	-10.7822
▁difference	-10.7822
oli	-10.7823
▁appeared	-10.7825
▁जेन	-10.7825
▁Pu	-10.7826
▁मुक्ति	-10.7828
सचिव	-10.783
▁Red	-10.783
▁बीचको	-10.7831
▁हाउस	-10.7833
▁स्वाद	-10.7834
▁मोर	-10.7834
▁उहाँलाई	-10.7834
▁numbers	-10.7835
रीमा	-10.7837
ष्ठ	-10.7838
ology	-10.7844
४०	-10.7846
▁repair	-10.7846
▁statements	-10.7846
▁बिरुवा	-10.7847
▁माइल	-10.7848
ाना	-10.785
▁संग	-10.7852
▁speed	-10.7857
धर्म	-10.7858
ङ्गो	-10.7858
गढ	-10.7859
▁कारवाही	-10.7859
▁बनाउँछ	-10.7859
▁entry	-10.7859
▁तामाङ	-10.786
shil	-10.7861
▁चितवन	-10.7861
level	-10.7861
▁immediate	-10.7862
▁sleep	-10.7862
▁भण्डारी	-10.7864
▁संख्यामा	-10.7867
▁shop	-10.7872
cc	-10.7873
▁Air	-10.7877
ढा	-10.788
▁battle	-10.7881
uj	-10.7881
▁environmental	-10.7881
▁fixed	-10.7883
▁सारा	-10.7883
▁अम	-10.7884
▁आफै	-10.7886
सेना	-10.7887
▁मुटु	-10.7887
▁प्रशिक्षक	-10.7888
्याउन	-10.7889
▁safety	-10.7894
म्स	-10.7895
tari	-10.7896
▁पल्ट	-10.7897
▁mental	-10.7901
▁दस्तुर	-10.7901
▁जोग	-10.7902
▁ca	-10.7905
▁demanding	-10.7905
▁वर्षपछि	-10.7908
▁interested	-10.7908
garne	-10.7909
▁wear	-10.7911
▁ideas	-10.7912
▁सजिलै	-10.7914
nau	-10.7918
बोर्ड	-10.7922
▁aware	-10.7926
बाल	-10.7926
▁Shiva	-10.7928
▁representative	-10.7929
▁मेट	-10.793
▁begins	-10.7932
▁emergency	-10.7935
▁Tamang	-10.7936
▁awareness	-10.7936
▁समूहका	-10.7938
▁घो	-10.7939
▁deemed	-10.794
▁summer	-10.794
▁टेलिफोन	-10.7941
▁Tarai	-10.7943
▁drive	-10.7944
▁regard	-10.7945
cur	-10.7946
marga	-10.7946
▁नेतृत्वको	-10.7946
▁index	-10.7947
mod	-10.7948
तेस्रो	-10.7948
18	-10.7949
ें	-10.7949
▁यू	-10.795
्ले	-10.7951
bhawa	-10.7953
▁बटन	-10.7954
▁Law	-10.7956
▁२००	-10.7956
top	-10.7957
das	-10.7957
▁हाँस	-10.7958
bali	-10.7958
▁corner	-10.7959
▁reality	-10.7961
▁बच	-10.7961
gadhi	-10.7961
ब्रे	-10.7961
▁हिन्दू	-10.7964
▁Federal	-10.7965
▁संयन्त्र	-10.7966
▁earned	-10.7968
▁highway	-10.7974
Their	-10.7975
▁starting	-10.7976
▁fighting	-10.7977
abata	-10.7978
▁प्याकेज	-10.7982
▁रानी	-10.7983
▁decade	-10.7986
▁becomes	-10.7988
▁सूचीमा	-10.7988
▁reconstruction	-10.7991
विच	-10.7993
रोग	-10.7996
▁rice	-10.7996
▁मधेशी	-10.7997
mun	-10.7997
इल	-10.7997
▁तिमीहरूका	-10.7999
▁27	-10.7999
सरह	-10.8
pokhari	-10.8001
▁ba	-10.8002
हरूबीच	-10.8007
-2	-10.8007
द्वय	-10.8009
कालमा	-10.8011
▁तिमीहरूको	-10.8012
▁Road	-10.8012
RA	-10.8012
ुम	-10.8013
sau	-10.8014
▁meat	-10.8016
▁२००८	-10.8018
▁प्रि	-10.8019
▁गरिब	-10.802
ुहोस्	-10.802
▁शान्त	-10.8025
bala	-10.8025
▁2008	-10.8026
▁km	-10.8028
▁बुबा	-10.8028
▁विकसित	-10.8029
बर्ग	-10.803
▁winner	-10.8031
राष्ट्रपति	-10.8035
▁1959	-10.8037
▁speaking	-10.8037
▁अभिनय	-10.8038
▁default	-10.8038
▁गइरहेका	-10.8038
▁ते	-10.8041
▁आँकडा	-10.8043
००	-10.8046
▁objective	-10.8046
▁अवलोकन	-10.8047
▁स्वा	-10.8048
▁Dharan	-10.8049
berg	-10.805
▁Pro	-10.8051
mati	-10.8052
▁उपाधि	-10.8056
wu	-10.8056
katha	-10.8057
▁बाकस	-10.8061
bahir	-10.8061
▁निकुञ्ज	-10.8061
▁jail	-10.8063
▁join	-10.8063
भएको	-10.8067
▁bid	-10.807
▁Western	-10.807
▁Executive	-10.8074
gur	-10.8077
▁बहुमत	-10.8078
स्रोत	-10.8079
badha	-10.808
▁पुर्याउन	-10.8081
▁College	-10.8082
▁minimum	-10.809
▁returning	-10.8093
▁पोर्ट	-10.8094
▁विपरीत	-10.8098
▁distributed	-10.8101
▁उत्साह	-10.8101
ada	-10.8102
▁twenty	-10.8103
wid	-10.8103
र्ज	-10.8104
▁पार्टीले	-10.8106
▁seemed	-10.8108
▁ख्रीष्ट	-10.8109
▁तहमा	-10.8111
ध्या	-10.8112
▁संगठित	-10.8112
▁Nations	-10.8113
▁treated	-10.8116
▁poet	-10.8117
▁gathered	-10.8117
mel	-10.8119
rya	-10.812
झ्	-10.812
nika	-10.8122
▁pick	-10.8126
▁टिप	-10.8129
▁ढिलो	-10.8131
wri	-10.8131
▁स्टेसन	-10.8132
▁क्षेत्रलाई	-10.8133
▁अह	-10.8133
kho	-10.8133
रिन	-10.8133
▁ठेकेदार	-10.8133
▁महान	-10.8135
▁plants	-10.8137
Da	-10.8138
▁Bal	-10.8139
▁स्या	-10.8141
▁गिरी	-10.8141
▁begin	-10.8143
▁हेरे	-10.8144
indra	-10.8144
▁रूपले	-10.8145
▁Te	-10.8145
▁evaluation	-10.8147
iyo	-10.8147
▁मूर्ति	-10.8148
▁बेर	-10.815
ष्टि	-10.815
▁secret	-10.815
▁literary	-10.8151
▁संक्षिप्त	-10.8151
▁कोल	-10.8152
▁चीनको	-10.8153
▁deep	-10.8155
▁मन्त्रिपरिषद्	-10.8156
▁उत्पादक	-10.8157
▁पालना	-10.8159
uko	-10.8159
▁प्रतिभा	-10.816
▁Lal	-10.8163
▁motion	-10.8165
▁चेतना	-10.817
▁खि	-10.8171
तल	-10.8173
ium	-10.8174
▁फिल्ड	-10.8176
▁नेताहरु	-10.8177
▁होम	-10.8185
बोध	-10.8186
nce	-10.8186
▁७५	-10.8188
रिस	-10.8188
▁निर्भर	-10.8189
▁अर्थात्	-10.8192
▁administrative	-10.8195
▁false	-10.8195
▁Land	-10.8195
इन्	-10.8196
टोल	-10.8196
▁ब्याङ्क	-10.8196
▁concerns	-10.82
bujh	-10.8202
▁finally	-10.8202
▁खोला	-10.8208
rani	-10.821
▁rose	-10.8212
mag	-10.8212
Error	-10.8212
▁Industry	-10.8213
▁शेयर	-10.8213
▁French	-10.8215
▁#	-10.8215
sel	-10.8216
▁निषेध	-10.8217
▁दृष्टि	-10.8217
▁मंगलबार	-10.822
▁Ge	-10.8221
▁protest	-10.8221
▁button	-10.8224
shak	-10.8225
▁रद्द	-10.8227
gro	-10.8227
▁thereof	-10.823
▁priest	-10.823
bhya	-10.8231
िस्ट	-10.8235
▁भोक	-10.8237
▁पठाए	-10.8237
▁id	-10.8238
▁irrigation	-10.8239
kun	-10.8245
hil	-10.8251
▁chance	-10.8253
▁explain	-10.8253
▁राजाले	-10.8254
▁नमूना	-10.8257
▁individual	-10.8257
io	-10.8259
निर्माण	-10.8261
▁award	-10.8262
bela	-10.8262
▁तिनी	-10.8263
▁grant	-10.8264
▁कान	-10.8265
sinha	-10.8268
Sha	-10.8268
पान	-10.8268
▁देखियो	-10.8269
iz	-10.8271
▁values	-10.8271
▁corporation	-10.8274
▁Clause	-10.8274
▁खोज्न	-10.8277
▁classes	-10.8278
▁पारित	-10.8279
▁भारी	-10.828
row	-10.8281
nik	-10.8285
▁गर्नुअघि	-10.8286
▁रेल	-10.8288
▁गिरावट	-10.8292
▁कसैको	-10.8292
▁सिम	-10.8292
udi	-10.8292
sil	-10.8294
▁नारी	-10.8299
▁dollars	-10.8301
▁topic	-10.8303
▁भरपर्दो	-10.8305
▁finance	-10.8305
▁प्रक्रियामा	-10.8306
▁drugs	-10.8307
होर	-10.8308
ush	-10.831
yau	-10.8313
▁©	-10.8318
यही	-10.8318
दारी	-10.8319
▁housing	-10.8322
▁changing	-10.8323
▁jobs	-10.8324
▁holy	-10.8325
tru	-10.8325
▁निश्चय	-10.8325
daina	-10.8327
▁द्रुत	-10.8327
▁Schedule	-10.8328
▁baby	-10.8328
▁launch	-10.8328
दुवै	-10.8329
▁विमान	-10.8329
▁wait	-10.8331
▁मर	-10.8333
▁पानीको	-10.8333
▁चन्द	-10.8334
▁earn	-10.8334
shiksha	-10.8335
▁उज्यालो	-10.8335
▁गन्तव्य	-10.8336
▁Web	-10.8337
ble	-10.834
▁पक्षले	-10.8341
दश	-10.8344
▁स्थानान्तरण	-10.8345
▁walking	-10.8345
Yes	-10.8346
▁सगरमाथा	-10.8346
ियल	-10.8351
ghu	-10.8352
▁चिनो	-10.8353
ski	-10.8355
▁sex	-10.8357
▁platform	-10.8358
▁अर्थात	-10.8359
▁अस्थायी	-10.8359
▁stuck	-10.8363
▁पराजित	-10.8363
▁Modi	-10.8365
mis	-10.8366
▁यसकारण	-10.8366
▁beyond	-10.8367
▁destroy	-10.8368
▁behalf	-10.8371
▁मेसिन	-10.8371
▁mo	-10.8373
▁na	-10.8374
तर्फको	-10.8374
ोइ	-10.8375
▁दूतावास	-10.8377
kka	-10.8378
yat	-10.8379
ability	-10.8383
▁झैं	-10.8385
▁एवम्	-10.8385
▁candidates	-10.8385
▁केटाकेटी	-10.8385
bag	-10.8388
pachhiko	-10.8389
▁कुकुर	-10.8389
▁31	-10.839
▁aircraft	-10.8394
bhumi	-10.8394
अमेरिका	-10.8396
▁संस्थागत	-10.8396
▁बाघ	-10.8398
▁बलि	-10.8399
▁भविष्यमा	-10.8402
▁अन्यत्र	-10.8404
▁covered	-10.8404
▁छोराहरू	-10.8405
▁काठमाडौंमा	-10.8405
न्टा	-10.8405
िष्ट	-10.8409
yas	-10.841
▁floor	-10.8412
▁soil	-10.8412
चयन	-10.8414
▁खुल	-10.8415
▁prosperity	-10.8416
▁watch	-10.8418
▁Jha	-10.8418
हान	-10.842
▁सतह	-10.842
▁ग्रे	-10.8421
▁गराई	-10.8423
guru	-10.8427
▁improved	-10.8427
वाङ	-10.8429
dak	-10.8431
▁परिषद	-10.8431
▁बोलाए	-10.8431
ral	-10.8433
▁handed	-10.8434
cri	-10.8435
▁sought	-10.8435
▁तो	-10.8436
▁beat	-10.8436
▁High	-10.8439
▁तर्फ	-10.844
▁newspaper	-10.8441
▁सेवामा	-10.8442
▁votes	-10.8444
्का	-10.8444
▁निस्क	-10.8444
तन	-10.8444
▁अनेक	-10.8445
ford	-10.8448
▁बह	-10.8448
▁servants	-10.8451
▁स्त्री	-10.8453
ong	-10.8454
▁बनाइ	-10.8455
▁सौ	-10.8456
▁Facebook	-10.846
लाग	-10.8462
▁Durbar	-10.8465
▁दुर्व्यवहार	-10.8465
nor	-10.8466
▁बलात्कार	-10.8466
▁व्यवस्थित	-10.8471
til	-10.8471
सीले	-10.8472
▁paying	-10.8477
▁दिनभित्र	-10.8477
▁शो	-10.848
satta	-10.8481
▁थु	-10.8482
▁बैठकले	-10.8483
ीन	-10.8487
मिक	-10.8493
mur	-10.8494
▁streets	-10.8497
▁Paul	-10.8498
Its	-10.8499
▁कम्पनीहरू	-10.85
ky	-10.8502
▁waiting	-10.8502
▁कट	-10.8502
▁answered	-10.8502
▁देखाएको	-10.8505
jung	-10.8505
ोमा	-10.8505
ममा	-10.8506
▁बर	-10.8509
मुख	-10.8515
▁Bir	-10.8515
▁seeking	-10.8516
▁Sher	-10.8517
▁accepted	-10.8518
▁सक्दैनन्	-10.8518
▁क्यामेरा	-10.8519
dip	-10.8519
▁दिन्छन्	-10.852
nis	-10.852
▁झर्यो	-10.8521
तपाईं	-10.8521
▁भोलि	-10.8524
tma	-10.8527
Mi	-10.8527
▁touch	-10.8529
ाइन्छ	-10.8529
▁Dha	-10.8531
हरुका	-10.8532
▁connected	-10.8533
babu	-10.8535
▁व्यस्त	-10.8536
▁तपाईँलाई	-10.854
▁विनाश	-10.8541
▁बोल्न	-10.8543
ंगा	-10.8544
▁निकास	-10.8544
ata	-10.8546
▁नाफा	-10.8546
▁राजीनामा	-10.8547
▁dialogue	-10.8547
बद्ध	-10.8548
niti	-10.855
च्च	-10.8552
▁कल्याण	-10.8554
▁extra	-10.8554
▁प्राध्यापक	-10.8556
cro	-10.856
▁Giri	-10.8562
▁Ban	-10.8564
भार	-10.8564
▁telephone	-10.8565
▁captain	-10.8565
ganj	-10.8568
▁सत	-10.8568
िग	-10.857
gy	-10.857
▁abuse	-10.8571
nara	-10.8571
बिन	-10.8572
▁प्रेरित	-10.8573
▁टन	-10.8575
▁diseases	-10.8576
हित	-10.8576
▁त्याग	-10.8579
धारी	-10.858
दन	-10.8582
kendra	-10.8582
▁सदस्यहरू	-10.8583
▁इमेल	-10.8584
China	-10.8584
chho	-10.8585
▁lake	-10.8585
▁Ghimire	-10.8588
▁Moses	-10.8589
▁7,	-10.859
▁रोजगार	-10.859
ुको	-10.859
▁Che	-10.8591
▁anger	-10.8592
▁wind	-10.8592
क्टर	-10.8592
▁background	-10.8593
gn	-10.8596
bhat	-10.8597
▁जिल्लाका	-10.8599
▁विदेशमा	-10.8599
▁bear	-10.86
mail	-10.86
ow	-10.8601
▁मिलेर	-10.8601
ib	-10.8602
धारा	-10.8604
पोखरी	-10.8604
▁Pokharel	-10.8606
▁यरूशलेम	-10.8611
▁मार्ने	-10.8618
▁लेख्न	-10.8621
▁Commerce	-10.8624
सेट	-10.8626
ेक्स	-10.8627
ान्त	-10.8627
▁संस्थाहरू	-10.863
▁Iraqi	-10.8632
हरूमाथि	-10.8633
▁stood	-10.8633
▁k	-10.864
ाब	-10.864
▁increases	-10.864
▁व्या	-10.8647
स्वास्थ्य	-10.8649
▁क्यान	-10.8649
▁आफ्नी	-10.8652
जीको	-10.8653
gyan	-10.8653
यक	-10.8654
▁सुस्त	-10.8655
▁stories	-10.8657
▁wood	-10.8659
sia	-10.866
▁Women	-10.8664
▁Africa	-10.8665
wing	-10.8671
िरहे	-10.8673
▁male	-10.8674
ben	-10.8678
met	-10.8678
▁कुरो	-10.868
▁£	-10.8682
▁du	-10.8683
▁डिसेम्बर	-10.8683
▁statistics	-10.8684
उत्तर	-10.8684
▁तिनको	-10.8688
तार	-10.8691
▁मेला	-10.8694
mini	-10.8695
anti	-10.8695
▁Sal	-10.8696
▁घडी	-10.8696
▁हौ	-10.8697
्नुभयो	-10.8697
antargat	-10.8702
▁negative	-10.8707
▁Mahendra	-10.8708
▁Tribhuvan	-10.8708
▁बनायो	-10.8708
▁गतिमा	-10.871
परिच्छेद	-10.8711
▁ड्राइभ	-10.8712
▁३२	-10.8714
▁माध्यमबाट	-10.8716
▁ceremony	-10.8716
▁प्रष्ट	-10.8719
सडक	-10.872
▁परिवारको	-10.8721
▁सुरक्षाकर्मी	-10.8722
badh	-10.8723
q	-10.8723
ल्य	-10.8725
hel	-10.8727
▁map	-10.8727
डेन	-10.8729
▁मनोरञ्जन	-10.873
▁फिट	-10.873
▁महिलाहरू	-10.8734
▁busy	-10.8734
सिक	-10.8734
wir	-10.8737
nch	-10.8738
▁मार्क	-10.8738
▁सौन्दर्य	-10.8739
कट	-10.8742
▁Germany	-10.8743
सीमा	-10.8747
▁posts	-10.8748
लीले	-10.8749
▁master	-10.875
▁warned	-10.8752
▁currency	-10.8753
▁दाहिने	-10.8753
17	-10.8755
chak	-10.8757
Ta	-10.8765
▁calls	-10.8765
बान	-10.8766
ick	-10.8768
▁चोर	-10.877
▁वर्षभन्दा	-10.8772
▁cell	-10.8772
▁अनुकूल	-10.8773
▁अधिकतम	-10.8773
▁iron	-10.8774
▁micro	-10.8776
▁afternoon	-10.8776
▁boy	-10.8779
▁villages	-10.878
▁भार	-10.878
मित	-10.8786
▁ब्ल	-10.8787
छैन	-10.8787
▁weight	-10.879
▁बहिनी	-10.8792
▁डुब	-10.8793
gent	-10.8796
▁focused	-10.8798
kura	-10.8799
लाको	-10.8799
नीय	-10.8801
gin	-10.8802
एपी	-10.8803
▁दर्जन	-10.8804
▁ऐ	-10.8804
▁spot	-10.8805
▁असोज	-10.881
band	-10.881
▁saved	-10.8811
▁अक्षम	-10.8811
▁दाऊद	-10.8813
▁जलविद्युत्	-10.8813
punar	-10.8814
▁खोजेको	-10.8814
▁सरकारमा	-10.8814
▁चाहिन्छ	-10.8815
sid	-10.8816
▁(19	-10.8817
ec	-10.882
▁घृणा	-10.8822
▁criminal	-10.8824
▁hundreds	-10.8824
▁मगर	-10.8824
▁पै	-10.8825
▁ल्या	-10.8826
Ho	-10.8827
▁corporate	-10.8827
▁सम्बद्ध	-10.8829
▁bo	-10.883
▁प्रविष्ट	-10.883
▁जैविक	-10.8831
▁attempt	-10.8831
▁calling	-10.8831
रहेका	-10.8833
▁li	-10.8834
▁शङ्का	-10.8837
▁myself	-10.8837
▁लगाएका	-10.8842
▁मन्त्रालयका	-10.8844
▁ज्यान	-10.8846
▁बने	-10.8847
▁सहयोगमा	-10.8847
▁अप्रिल	-10.8847
कार्यक्रममा	-10.8848
▁Times	-10.8848
bhitrako	-10.8853
▁गायक	-10.8854
ेत	-10.8854
aba	-10.8854
▁उल्लङ्घन	-10.8855
xi	-10.8858
▁कसले	-10.8858
Can	-10.8859
ाइज	-10.886
list	-10.8862
▁mode	-10.8862
शिक्षा	-10.8866
▁select	-10.8872
कथा	-10.8872
▁website	-10.8874
▁सञ्चालनमा	-10.8875
▁patient	-10.8876
▁journalist	-10.8876
▁meaning	-10.8877
उनीहरूको	-10.8877
▁टिभी	-10.8879
NC	-10.8879
irahe	-10.8886
ाक	-10.8887
cket	-10.8888
द्व	-10.8892
▁ढ	-10.8892
dle	-10.8894
▁joined	-10.8896
▁tender	-10.8897
▁mission	-10.8898
िभ	-10.8899
21	-10.8899
▁happens	-10.8899
▁specific	-10.8899
▁हल्ला	-10.8899
▁relatives	-10.8907
सह	-10.8907
▁सुख	-10.8908
▁trading	-10.8911
11	-10.8912
▁deliver	-10.8914
▁एसियाली	-10.8916
inchha	-10.8916
▁White	-10.8917
▁संस्कार	-10.8917
▁जनशक्ति	-10.8917
▁se	-10.8918
▁भाषामा	-10.8918
▁bed	-10.892
▁भट्ट	-10.892
▁पर्व	-10.8922
▁standing	-10.8922
▁घोडा	-10.8924
▁lines	-10.8925
▁निको	-10.8928
▁देखेर	-10.8929
▁drama	-10.893
▁माल	-10.8934
▁समाचारपत्र	-10.8934
▁पठ	-10.8937
▁facing	-10.894
▁creation	-10.894
ेमा	-10.8941
▁विराटनगर	-10.8942
▁धान	-10.8942
▁Clinton	-10.8944
विगत	-10.8944
▁university	-10.8944
▁खिच	-10.8945
▁नेताहरूले	-10.8946
भित्रका	-10.8947
क्षण	-10.8947
▁फायर	-10.8948
lgayatko	-10.895
▁अंग्रेजी	-10.8951
▁परिवारलाई	-10.8951
▁revolution	-10.8953
▁guarantee	-10.8953
▁बाहिरी	-10.896
▁इन्द्र	-10.8962
vers	-10.8966
TM	-10.8967
eli	-10.8968
▁रोप	-10.897
▁हामीसँग	-10.8972
▁शरणार्थी	-10.8973
▁बोकेर	-10.8973
▁अभावमा	-10.8974
▁choice	-10.8977
ख्या	-10.8979
▁कुट	-10.8979
warga	-10.8983
विक	-10.8986
▁पाण्डे	-10.8988
मोर	-10.8988
stha	-10.8988
▁वंश	-10.8988
ाइने	-10.8988
▁भी	-10.8988
स्टा	-10.899
रहित	-10.899
▁खरीद	-10.8992
कुरा	-10.8992
ीबाट	-10.8992
▁publication	-10.8995
ल्लो	-10.8995
indai	-10.8995
▁जर्मनी	-10.8996
rik	-10.8997
इस	-10.9
▁बनाई	-10.9
▁suicide	-10.9001
लुङ	-10.9003
स्थिति	-10.9005
▁उदार	-10.9005
▁अफ्रिका	-10.9006
▁Buddha	-10.9007
▁partner	-10.9008
▁easier	-10.9011
head	-10.9012
ब्र	-10.9015
▁भत्ता	-10.9015
बुल	-10.9016
bed	-10.9017
▁flag	-10.9018
▁कर्	-10.902
▁Jan	-10.902
▁च्या	-10.902
ुस	-10.902
▁सम्पादक	-10.9021
▁Security	-10.9022
लीको	-10.9024
▁प्यानल	-10.9024
▁स्वचालित	-10.9027
stro	-10.9027
लागि	-10.903
▁ब्र	-10.9032
▁grain	-10.9033
gam	-10.9039
▁क्लिन्टन	-10.904
Bo	-10.9041
lang	-10.9042
▁अनुसरण	-10.9044
▁Terai	-10.9046
▁Y	-10.9048
▁beauty	-10.9049
▁बन्यो	-10.905
▁ट्रे	-10.9052
▁participated	-10.9053
▁refused	-10.9054
10	-10.9055
▁आर्	-10.9057
▁वातावरणीय	-10.9057
▁intention	-10.9057
्ता	-10.9057
▁दुबै	-10.9062
नाको	-10.9062
lla	-10.9062
▁सकेका	-10.9063
▁Russian	-10.9063
▁हैसियत	-10.9063
▁block	-10.9063
▁गर्थे	-10.9068
Set	-10.9068
▁फर्	-10.9068
▁institutional	-10.9071
ढी	-10.9073
tele	-10.9075
▁ट्राफिक	-10.9075
▁port	-10.9077
मणि	-10.9077
जान	-10.9078
▁दलहरू	-10.9079
प्रहरी	-10.908
pha	-10.908
स्था	-10.9081
▁इस्राएल	-10.9082
▁लिङ्क	-10.9084
griha	-10.9084
ट्	-10.9086
Your	-10.9086
र्ग	-10.9087
▁angry	-10.9087
iv	-10.9087
▁गोप्य	-10.9092
▁उठाउने	-10.9095
▁gun	-10.9096
▁relation	-10.9096
sangha	-10.91
▁आकर्षण	-10.9101
▁ढंगले	-10.9101
आमा	-10.9102
▁artists	-10.9103
Di	-10.9103
▁पार्नुहोस्	-10.9104
▁प्रादेशिक	-10.9104
्रि	-10.9106
fur	-10.9107
लै	-10.9107
oriented	-10.9108
ments	-10.911
had	-10.9111
▁दरखास्त	-10.9112
लगत्तै	-10.9113
▁डिजिटल	-10.9113
क्वे	-10.9113
bhag	-10.9115
▁absence	-10.9116
▁कब्जा	-10.9116
pen	-10.9118
▁देखिएका	-10.912
▁हजारौं	-10.912
▁Khanal	-10.912
माझ	-10.9121
▁आज्ञा	-10.9121
▁आगमन	-10.9122
▁r	-10.9123
म्या	-10.9123
dama	-10.9124
▁९०	-10.9124
▁अर्ध	-10.9125
▁linked	-10.9125
▁भेट्न	-10.9126
स्य	-10.9126
▁समितिमा	-10.9126
▁ढिलाइ	-10.9126
▁Japanese	-10.9128
▁equally	-10.9129
▁Gi	-10.9132
▁पाठक	-10.9134
chhaun	-10.9134
▁प्रोत्साहन	-10.9135
▁train	-10.9138
▁inquiry	-10.914
▁व्यवसायीले	-10.9142
▁fulfill	-10.9142
dari	-10.9143
▁provides	-10.9144
-3	-10.9145
क्सी	-10.9146
▁तपाईंलाई	-10.9149
▁उल्लिखित	-10.9149
न्डा	-10.915
swarup	-10.9151
ili	-10.9152
▁२००४	-10.9152
tka	-10.9152
▁हुनुहुन्थ्यो	-10.9153
▁sit	-10.9154
▁नकारात्मक	-10.9154
▁heaven	-10.9154
▁खण्डमा	-10.9156
▁सुर	-10.9159
▁अभिग्रहण	-10.9159
▁बचाउन	-10.9161
▁बारम्बार	-10.9164
▁analysis	-10.9173
lt	-10.9175
िदै	-10.9175
▁जेठ	-10.9176
▁कार्यको	-10.9179
▁Qu	-10.9179
▁निष्पक्ष	-10.9179
▁भन्छिन्	-10.918
▁प्रभु	-10.9184
Kathmandu	-10.9185
▁सबैको	-10.9185
▁समूहको	-10.9186
▁शल्यक्रिया	-10.9187
▁Prakash	-10.9188
mukhi	-10.9189
▁चलन	-10.919
awi	-10.919
▁ल्याए	-10.919
▁काँ	-10.919
▁mark	-10.9192
▁happiness	-10.9193
▁trees	-10.9194
्नी	-10.9195
मका	-10.9195
झा	-10.9196
िन्छन्	-10.9198
▁पुत्र	-10.9201
bhet	-10.9204
kya	-10.9204
▁फोरम	-10.9205
्‍	-10.9205
niko	-10.9211
श्र	-10.9211
▁अग्रसर	-10.9213
पाँच	-10.9213
▁नाका	-10.9213
्दी	-10.9215
त्यही	-10.9219
▁मध्यम	-10.9221
said	-10.9221
▁ज्यादै	-10.9222
▁दिशा	-10.9223
▁gets	-10.9224
▁माओवादीको	-10.9226
▁served	-10.9227
▁कर्मचारीहरू	-10.9227
▁placed	-10.9228
▁मण्डल	-10.9229
▁क्षेत्रबाट	-10.9231
▁मैदान	-10.9231
▁knows	-10.9233
mate	-10.9234
▁ठान	-10.9237
▁medium	-10.9237
बिरुद्ध	-10.9239
ay	-10.924
tali	-10.9241
▁बगैंचा	-10.9242
▁Mon	-10.9243
▁विधा	-10.9245
▁जमीन	-10.9245
्जा	-10.925
▁creating	-10.9251
▁performed	-10.9257
Jo	-10.9257
▁store	-10.926
▁Organization	-10.9261
परमप्रभुले	-10.9262
रुप	-10.9264
ाङ्ग	-10.9265
घटना	-10.9267
▁चरा	-10.9271
▁nominated	-10.9272
त्री	-10.9274
▁नोक्सान	-10.9274
▁charged	-10.9275
सत्ता	-10.9276
▁allowance	-10.9277
▁चर्च	-10.9278
kara	-10.9279
ब्या	-10.9279
▁बौद्ध	-10.9279
▁western	-10.9281
▁ग्रा	-10.9282
▁profession	-10.9284
वादको	-10.9285
२४	-10.9288
▁आश्वासन	-10.929
▁healthy	-10.929
▁टोल	-10.9292
पना	-10.9292
nle	-10.9295
▁stream	-10.9296
bharat	-10.9298
▁Award	-10.9298
▁Then	-10.93
▁बिर	-10.93
स्ट्रो	-10.9302
▁sending	-10.9302
▁attend	-10.9303
▁क्यालिफोर्निया	-10.9307
gg	-10.9307
▁अन्ततः	-10.9307
▁Airport	-10.931
▁सुम्प	-10.931
▁hair	-10.9311
wak	-10.9311
▁महिलाको	-10.9311
▁बोक	-10.9313
▁भ्रम	-10.9314
▁confirmed	-10.9316
▁mortgage	-10.9319
▁युनियन	-10.932
्याङ	-10.9324
vis	-10.9325
▁servant	-10.9325
▁महिनासम्म	-10.9326
▁गर्दैनन्	-10.9327
▁permanent	-10.9329
▁although	-10.9329
धार	-10.933
▁formal	-10.9334
rana	-10.9334
mber	-10.9335
▁आजको	-10.9335
▁strengthen	-10.9336
हालै	-10.9336
▁हेल	-10.9337
▁unable	-10.9337
ठी	-10.9337
ोर	-10.9338
▁लेखन	-10.9339
कर्म	-10.9344
ेरी	-10.9346
lon	-10.9346
▁दिनुपर्छ	-10.9348
पिङ	-10.935
▁कै	-10.9352
▁pe	-10.9352
पट	-10.9354
wani	-10.9357
▁राजनीतिमा	-10.9357
▁नक्सा	-10.9358
ino	-10.9358
▁girls	-10.9359
▁जनजाति	-10.936
dd	-10.9361
nale	-10.9362
▁व्यापारिक	-10.9363
▁धकेल	-10.9364
▁respectively	-10.9366
▁El	-10.9367
▁identified	-10.9368
▁करीब	-10.9369
▁शुरू	-10.9369
▁actually	-10.9372
▁losing	-10.9374
आर्थिक	-10.9377
▁आफु	-10.9382
▁mechanism	-10.9383
▁टेक	-10.9383
तर्फबाट	-10.9384
▁ordered	-10.9386
▁era	-10.9386
bs	-10.9389
ell	-10.939
▁उत्	-10.9392
barema	-10.9394
▁भण्डारण	-10.9395
▁स्वाभाविक	-10.9398
▁(3)	-10.9398
▁ran	-10.9399
▁कच्चा	-10.9399
▁राष्ट्रको	-10.9399
▁solution	-10.94
ब्याक	-10.9401
▁camera	-10.9401
▁सेप्टेम्बरमा	-10.9402
▁प्रहार	-10.9406
sarkar	-10.9409
बैंक	-10.941
र्त	-10.9412
▁डिग्री	-10.9413
▁सशक्त	-10.9414
▁Malaysia	-10.9417
▁रही	-10.9417
▁अपहरण	-10.9418
पू	-10.9418
▁falling	-10.9422
▁समयमै	-10.9422
▁memory	-10.9423
▁brand	-10.9425
▁झन्	-10.9425
तिनीहरूले	-10.9425
▁Ad	-10.9426
bana	-10.9427
▁Street	-10.9428
▁दुर्	-10.9428
रै	-10.9429
प्राप्त	-10.9433
▁shocked	-10.9434
डु	-10.9434
majh	-10.9436
ug	-10.9438
▁पूर्वनिर्धारित	-10.9439
▁माइक्रो	-10.9441
▁कप्तान	-10.9443
▁दिइने	-10.9444
rate	-10.9445
▁बिट	-10.9445
▁मालसामान	-10.9448
▁इराकी	-10.9448
▁guilty	-10.9448
yasa	-10.9453
Pro	-10.9458
▁इलाका	-10.946
harma	-10.946
▁नाग	-10.9462
▁requires	-10.9468
sinh	-10.9471
▁देउ	-10.9472
यसकारण	-10.9473
tah	-10.9473
MA	-10.9473
sive	-10.9473
cer	-10.9474
▁प्रथम	-10.9477
भएका	-10.9481
▁discrimination	-10.9482
▁अहिलेको	-10.9488
▁बाग	-10.9488
lic	-10.949
विभिन्न	-10.9492
ग्रस्त	-10.9492
▁सफ्टवेयर	-10.9492
▁auto	-10.9492
▁सचिवालय	-10.9494
▁सक्थ्यो	-10.9498
▁भविष्यवाणी	-10.9502
▁troops	-10.9505
ग्न	-10.9505
▁परिमाण	-10.9505
▁flight	-10.9506
▁मुनाफा	-10.9508
▁wishes	-10.9513
▁conducting	-10.9515
बन्ध	-10.9517
▁bought	-10.9517
तपाईँको	-10.9518
न्तु	-10.952
wer	-10.9521
ls	-10.9522
▁Jhapa	-10.9524
▁challenges	-10.9525
nga	-10.9526
▁अप्रत्याशित	-10.9526
त्रा	-10.9527
▁straight	-10.9527
टिन	-10.9528
pug	-10.9528
▁chairperson	-10.9529
pata	-10.953
्म	-10.9531
समिति	-10.9532
▁तान	-10.9533
्छौ	-10.9533
सका	-10.9534
nta	-10.9534
▁2004	-10.9534
भू	-10.9537
▁trial	-10.9537
▁हिसाबले	-10.9538
▁देखाउनुहोस्	-10.9538
▁खन	-10.9544
sanstha	-10.9545
tap	-10.9547
▁प्रणालीमा	-10.9547
▁*	-10.9548
nak	-10.9548
▁मारिएका	-10.9549
▁वस्तुहरू	-10.955
▁शहरी	-10.9551
janma	-10.9552
▁अमर	-10.9552
▁चामल	-10.9553
ghan	-10.9553
▁diplomatic	-10.9557
▁विद्या	-10.9558
▁हल्ल	-10.9558
▁सुरुआत	-10.9559
sat	-10.956
▁समूहमा	-10.9561
२१	-10.9566
harumadhye	-10.9568
kko	-10.9569
▁दलहरु	-10.957
▁रूस	-10.957
ier	-10.9573
▁कोषको	-10.9573
▁ancient	-10.9576
▁जनवरी	-10.9577
▁ग्रहण	-10.9578
anma	-10.958
वु	-10.9581
▁सू	-10.9582
▁weather	-10.9582
▁माइकल	-10.9584
ाप	-10.9585
▁स्कुल	-10.9588
▁Water	-10.959
dui	-10.9591
▁code	-10.9591
▁इकाई	-10.9593
ब्रा	-10.9593
▁राजतन्त्र	-10.9594
▁चुन	-10.9595
▁dark	-10.9596
▁invest	-10.9596
▁कष्ट	-10.96
▁जिते	-10.96
▁देखिन	-10.9601
▁आयोजक	-10.9604
तम	-10.9604
▁जित्ने	-10.9605
▁wild	-10.9608
▁northern	-10.9608
▁enjoy	-10.9608
▁Bhu	-10.9611
▁California	-10.9612
▁silver	-10.9613
act	-10.9613
ुहुन्न	-10.9614
▁leaves	-10.9616
▁इराकमा	-10.9616
ार्ड	-10.9616
्द	-10.9617
कोष	-10.9617
▁fifth	-10.9618
▁साइ	-10.9619
काली	-10.9619
▁Sam	-10.962
दास	-10.9622
▁फर्केर	-10.9628
kaka	-10.963
mila	-10.9632
▁meetings	-10.9633
▁peaceful	-10.9633
▁भाव	-10.9634
र्ति	-10.9635
▁यसर्थ	-10.9636
cle	-10.9637
▁ड्र	-10.9638
▁messages	-10.9638
▁दिल	-10.9639
▁certainly	-10.9639
▁पात्र	-10.964
▁worker	-10.9643
Po	-10.9644
▁दिइनेछ	-10.9644
▁बाह्र	-10.9645
▁संविधानसभा	-10.9645
Among	-10.9646
pel	-10.9647
ल्क	-10.9647
▁कार्यालयको	-10.9647
मन्त्रालय	-10.9648
▁डेभिड	-10.9648
▁sites	-10.9652
टले	-10.9654
▁आचार्य	-10.9657
▁खस	-10.9658
▁उन्नत	-10.9658
▁expand	-10.9658
तैपनि	-10.9661
ants	-10.9661
▁बिग्र	-10.9662
▁Birgunj	-10.9663
चल	-10.9664
ारा	-10.9664
प्रधान	-10.9665
hul	-10.9666
chya	-10.9666
▁पोख	-10.9667
जको	-10.9668
▁हिम	-10.9671
▁संसद्	-10.9672
▁achieved	-10.9673
▁caught	-10.9673
▁छानबिन	-10.9674
punah	-10.9676
भाइ	-10.9676
▁है	-10.9679
▁सुरुवात	-10.9679
जू	-10.968
▁गाउ	-10.968
▁परिषद्को	-10.9683
▁st	-10.9683
chhut	-10.9687
▁भइरहेका	-10.9688
▁imp	-10.9691
▁थर	-10.9692
▁register	-10.9694
▁नायक	-10.9694
▁par	-10.9698
▁आन्दोलनको	-10.9698
▁बीमा	-10.9698
▁समृद्धि	-10.97
▁proceed	-10.9702
wel	-10.9703
▁पात	-10.9705
Looking	-10.9707
ाउनुपर्ने	-10.9707
▁रोटी	-10.9711
nic	-10.9712
long	-10.9712
▁द्वीप	-10.9713
▁टाइम्स	-10.9714
14	-10.9714
▁चिर	-10.9716
▁achieve	-10.9718
▁distance	-10.9719
▁खोजे	-10.9721
▁arms	-10.9721
▁आफैँ	-10.9721
▁टिक	-10.9724
▁गन	-10.9726
▁Joshi	-10.9728
पाठ	-10.9728
▁Rupees	-10.9729
▁पिट	-10.9731
▁तिनलाई	-10.9733
▁सालको	-10.9737
▁skin	-10.9738
बाहेकका	-10.9739
krit	-10.974
▁shooting	-10.9741
yog	-10.9748
▁उभ	-10.9749
भने	-10.9751
▁वस्तुको	-10.9751
म्बो	-10.9755
▁सरकारबाट	-10.9755
घु	-10.9756
▁presidential	-10.9757
▁minute	-10.9758
▁affect	-10.9759
▁राउन्ड	-10.9761
pot	-10.9761
पीडित	-10.9762
▁35	-10.9762
ms	-10.9763
र्ने	-10.9764
▁Lalitpur	-10.9765
▁एप	-10.9766
▁load	-10.9766
▁शहरको	-10.9767
सुरक्षा	-10.9767
ंच	-10.977
Lo	-10.977
▁छोडेर	-10.9771
जिन	-10.9772
्त	-10.9773
fin	-10.9773
▁greater	-10.9773
▁अधि	-10.9775
▁Division	-10.9776
kata	-10.9777
▁hall	-10.9777
▁resolved	-10.9777
kau	-10.9779
खो	-10.9779
▁asking	-10.978
cher	-10.978
ानु	-10.9783
दुर	-10.9785
रिङ	-10.9789
NA	-10.979
▁Shi	-10.9793
▁खुसी	-10.9794
▁Tu	-10.9797
▁हिँड	-10.9797
▁साँ	-10.9798
pun	-10.9803
lau	-10.9803
ाह	-10.9804
▁पुनरावेदन	-10.9805
▁worried	-10.9806
nas	-10.9806
▁कोक	-10.9809
pet	-10.981
▁Speaker	-10.9811
▁Panchayat	-10.9812
ह्र	-10.9816
▁छोडे	-10.9817
▁रुचि	-10.9824
▁लक्ष्मी	-10.9824
well	-10.9825
bis	-10.9826
▁बुस	-10.9826
▁हालको	-10.983
fir	-10.9831
▁bread	-10.9832
ाली	-10.9833
पार	-10.9835
▁cast	-10.9838
▁एसिया	-10.9839
▁विदा	-10.9841
▁खड्का	-10.9843
श्य	-10.9843
र्व	-10.9844
भए	-10.9845
▁businessmen	-10.9847
▁सिमाना	-10.9849
ghata	-10.985
▁formation	-10.9851
▁संक्रमण	-10.9856
▁श्याम	-10.9861
▁निगम	-10.9862
▁विकृति	-10.9862
टको	-10.9863
▁imposed	-10.9863
पल	-10.9863
▁everywhere	-10.9864
▁वो	-10.9872
ात	-10.9873
▁आत्महत्या	-10.9873
▁fill	-10.9873
▁अग्र	-10.9875
Everyone	-10.9884
▁winter	-10.9884
▁shared	-10.9884
▁draft	-10.9885
▁procurement	-10.9889
▁Dhakal	-10.989
▁होइनन्	-10.9891
▁महाधिवेशन	-10.9892
▁सुत	-10.9894
▁एकैसाथ	-10.9895
▁circumstances	-10.99
▁दक्षिणी	-10.99
्नेछ	-10.9901
dhari	-10.9902
रल	-10.9903
▁obtain	-10.9905
्मी	-10.9908
▁broke	-10.9908
लग	-10.9909
▁एकाइ	-10.991
▁Year	-10.991
ware	-10.9913
▁सम्भवत	-10.9914
▁सेन	-10.9914
बित्तिकै	-10.9915
▁forever	-10.9915
▁particularly	-10.9917
▁पेशा	-10.9918
▁consumption	-10.992
ठो	-10.9921
Three	-10.9921
▁सरे	-10.9923
sana	-10.9925
राले	-10.9925
ान्तर	-10.9927
▁मानवअधिकार	-10.9929
ging	-10.993
rel	-10.9932
▁अविश्वास	-10.9933
▁MP	-10.9933
▁अमेरिकाको	-10.9936
Cannot	-10.9937
▁समस्याको	-10.9938
ोको	-10.9939
▁पद्धति	-10.9941
बै	-10.9941
▁vision	-10.9941
▁+	-10.9942
वो	-10.9943
प्स	-10.9943
▁शिविर	-10.9948
▁विद्युतीय	-10.9948
Speaking	-10.9948
eth	-10.995
▁पैठारी	-10.9951
rag	-10.9951
▁वैकल्पिक	-10.9951
▁Everest	-10.9951
anle	-10.9952
पास	-10.9952
▁गर्नेछु	-10.9955
▁terror	-10.9956
cus	-10.9958
bb	-10.9959
lor	-10.9961
cks	-10.9962
▁जोडिएको	-10.9965
bandi	-10.9965
13	-10.9965
▁बोल्दै	-10.9966
▁सूचकाङ्क	-10.9967
▁संसारमा	-10.9967
yaka	-10.9968
▁उचाइ	-10.9968
▁पर्ख	-10.9968
▁अधिकारको	-10.9969
▁झिक	-10.9971
▁watching	-10.9972
▁निकट	-10.9973
▁अङ्ग	-10.9975
lim	-10.9975
मह	-10.9977
▁अन्तरक्रिया	-10.9977
▁assembly	-10.9977
anda	-10.9978
योजना	-10.9979
▁हिसाब	-10.9983
▁स्क	-10.9983
▁hot	-10.9983
▁बिर्स	-10.9985
▁बाँड	-10.9988
▁फ्ल	-10.9989
▁बोल्ने	-10.9992
▁अदालतको	-10.9993
हरा	-10.9995
▁चाहन्थे	-10.9995
▁बन्दै	-10.9997
्टि	-10.9997
▁advice	-10.9998
उसले	-10.9998
▁गर्भ	-10.9999
▁सुश्री	-11.0003
▁holiday	-11.0004
▁हौं	-11.0005
ero	-11.0005
एर	-11.0006
खि	-11.0009
▁इतिहासमा	-11.0009
▁हिंड	-11.0012
▁आउ	-11.0012
त्यसो	-11.0014
hir	-11.0019
साइ	-11.0019
भन	-11.0023
▁2.	-11.0024
▁सायद	-11.0024
हुँदै	-11.0024
जनालाई	-11.0026
▁इस्	-11.0027
▁Wi	-11.0029
dina	-11.0031
▁पाइ	-11.0032
▁चित्त	-11.0033
▁लाग	-11.0033
▁लोकतान्त्रिक	-11.0033
▁छेउमा	-11.0033
▁प्रतिफल	-11.0037
▁entrepreneurs	-11.0038
governmental	-11.0039
▁Afghanistan	-11.004
▁Tharu	-11.0044
▁भागे	-11.0045
asi	-11.0048
नौं	-11.0049
फिल्ड	-11.0049
▁Ms	-11.005
hum	-11.0054
qua	-11.0056
▁बंगलादेश	-11.0056
▁entering	-11.0057
▁मोहन	-11.0059
ip	-11.0059
▁न्युज	-11.006
ये	-11.0061
▁Basnet	-11.0062
▁कास	-11.0062
▁गौरव	-11.0064
▁भय	-11.0065
▁fake	-11.0067
कांग्रेस	-11.0069
▁पोखरी	-11.0069
▁तर्फबाट	-11.0073
▁ह्यान्डल	-11.0074
thap	-11.0074
नेता	-11.0076
विद्यालय	-11.0078
▁At	-11.0078
िश	-11.0079
▁तिनीहरु	-11.008
▁sa	-11.008
uta	-11.008
▁चाहे	-11.008
▁succeeded	-11.008
form	-11.0082
▁height	-11.0083
▁अम्	-11.0085
▁ब्रिटेन	-11.0089
▁पस	-11.009
▁साइज	-11.0091
▁कार्यक्रमहरु	-11.0091
▁arranged	-11.0093
▁फ्रेन्च	-11.0095
मूल	-11.0095
▁मोदी	-11.0095
▁वायु	-11.0097
ably	-11.0097
बन्द	-11.0097
▁थालेपछि	-11.01
▁managed	-11.0101
▁complex	-11.0103
▁scheme	-11.0104
nia	-11.0105
▁pen	-11.011
▁panel	-11.011
gaira	-11.011
Com	-11.0112
▁advantages	-11.0113
नाले	-11.0114
▁प्रयत्न	-11.0114
▁सेनाको	-11.0114
ugh	-11.0115
▁Senate	-11.0115
nima	-11.0117
▁लैजान	-11.0117
▁campus	-11.0119
Show	-11.0119
▁proved	-11.0119
▁३३	-11.012
ruwa	-11.0123
▁widespread	-11.0125
garna	-11.0126
▁सप्तरी	-11.0127
▁असमर्थ	-11.0128
▁पू	-11.0131
▁Ministers	-11.0134
▁यादवले	-11.0134
तसर्थ	-11.0136
▁जमिन	-11.0136
▁गरिसकेको	-11.0139
chai	-11.014
२२	-11.0141
40	-11.0143
क्ति	-11.0143
giri	-11.0143
मती	-11.0144
त्या	-11.0145
हरि	-11.0145
scotsman	-11.0146
▁जापानी	-11.0148
▁बताएको	-11.0149
▁note	-11.0149
त्यसैगरी	-11.0154
▁rock	-11.0154
▁परित्याग	-11.0157
▁आदिवासी	-11.0161
▁inform	-11.0161
▁forget	-11.0162
▁extent	-11.0163
▁गार्ड	-11.0164
teen	-11.0164
▁exit	-11.0165
▁plays	-11.0166
ane	-11.0169
sag	-11.0169
▁Ji	-11.017
▁छोड्न	-11.017
12	-11.0176
▁depend	-11.0177
pol	-11.0177
▁sacrifice	-11.0178
▁league	-11.0178
nuparchha	-11.0179
ज्ञान	-11.0179
ाया	-11.0179
▁इन्टर	-11.018
bid	-11.0181
▁Khan	-11.0182
▁बानी	-11.0183
▁किनारा	-11.0186
baha	-11.0188
▁indigenous	-11.0189
NEW	-11.0189
▁सरकारका	-11.019
▁Football	-11.0194
▁labour	-11.0194
▁संघको	-11.0195
istic	-11.0195
▁चाहन्छौं	-11.0197
▁था	-11.0197
ox	-11.0197
▁थि	-11.0198
मण्डल	-11.0198
६०	-11.02
▁fruit	-11.0202
kum	-11.0202
▁बैंकको	-11.0202
▁traders	-11.0203
िनो	-11.0203
▁अपमान	-11.0203
▁meters	-11.0205
▁उत्पादनमा	-11.0206
▁शक्तिको	-11.0208
dhak	-11.0208
▁Don	-11.0209
जति	-11.0209
▁Devi	-11.021
▁Civil	-11.0214
shar	-11.0214
सकेका	-11.0215
▁प्रस्तावित	-11.0216
वती	-11.0222
▁मुस्लिम	-11.0223
dom	-11.0223
▁Human	-11.0225
▁alleged	-11.0226
्नुहुन्छ	-11.0228
sher	-11.0228
▁Himalayan	-11.0229
data	-11.0229
mile	-11.023
dya	-11.0232
EC	-11.0234
▁NO	-11.0236
▁lawmakers	-11.0236
▁समझदारी	-11.0237
uti	-11.024
▁बहुसंख्यक	-11.0241
▁participating	-11.0242
▁drawn	-11.0243
▁इन्जिनियर	-11.0245
▁लुट	-11.0245
सक्छ	-11.0248
▁rescue	-11.0249
▁units	-11.025
स्तरीय	-11.0251
iharu	-11.0253
कर्ताहरू	-11.0254
▁लोकतन्त्र	-11.0255
▁हालैको	-11.0256
▁एजेन्ट	-11.026
▁कसूर	-11.0264
▁मनमा	-11.0265
▁सौदा	-11.0266
dge	-11.0266
ire	-11.0266
▁रङ्ग	-11.0267
हिजो	-11.027
▁alive	-11.0271
ij	-11.0271
▁पुनरावृत्ति	-11.0274
पाटी	-11.0275
▁जनकपुर	-11.0275
▁bond	-11.0276
प्ला	-11.0277
सुर	-11.0278
मुलुक	-11.0282
wati	-11.0282
dro	-11.0285
bot	-11.0285
▁दगुरे	-11.0286
rie	-11.0286
▁options	-11.0289
▁उत्सव	-11.0291
▁talent	-11.0291
▁पुरस्कृत	-11.0291
▁लाग्दैन	-11.0298
पाइ	-11.0299
wihin	-11.03
▁आंशिक	-11.0302
▁बसिरहेका	-11.0302
▁बुझ्	-11.0303
त्तर	-11.0305
Prime	-11.0305
Use	-11.0306
ाइए	-11.0307
▁Janakpur	-11.0307
▁समयको	-11.0308
room	-11.0309
▁अटो	-11.031
▁characters	-11.031
द्वार	-11.0311
▁संविधानको	-11.0312
ुले	-11.0312
▁external	-11.0312
▁album	-11.0313
▁ambassador	-11.0318
▁criteria	-11.0318
▁कार्यालयका	-11.0319
▁विद्रोह	-11.0321
▁दलाल	-11.0328
▁लिइएको	-11.0329
▁standards	-11.033
बारेमा	-11.0331
▁आन्दोलनमा	-11.0332
PA	-11.0337
sul	-11.0338
▁भूमिमा	-11.0339
▁अना	-11.0339
▁प्राचीन	-11.0339
▁tournament	-11.0345
▁पार्दै	-11.0346
▁stick	-11.0347
▁heritage	-11.035
▁पुनरावलोकन	-11.035
pil	-11.0351
ङले	-11.0354
Ga	-11.0357
▁चिनी	-11.0357
▁upper	-11.0358
पछाडि	-11.036
▁बोले	-11.0361
▁भनि	-11.0361
dine	-11.0362
▁हेड	-11.0363
▁धरान	-11.0365
▁edge	-11.0366
▁","1	-11.0366
▁प्रकोप	-11.0368
▁Dan	-11.0368
house	-11.0368
▁Medical	-11.0372
▁पठाउनु	-11.0373
▁क्रो	-11.0377
Again	-11.0379
ाउँ	-11.0382
्नुभएको	-11.039
▁Ben	-11.039
▁Majesty	-11.0394
▁प्रतिवेदनमा	-11.0395
▁bi	-11.0396
▁Force	-11.0397
▁रक्त	-11.0397
स्वरुप	-11.0401
card	-11.0402
▁buildings	-11.0402
▁mutual	-11.0405
Li	-11.0405
अनु	-11.0406
▁लेखे	-11.0406
▁विघटन	-11.0409
ters	-11.0411
विरोधी	-11.0412
▁prove	-11.0413
ddha	-11.0417
▁material	-11.0417
khoj	-11.0418
▁apply	-11.0418
पुरमा	-11.042
▁row	-11.0422
ious	-11.0425
▁species	-11.0427
▁2001	-11.043
▁completion	-11.0432
▁प्रतिविम्बित	-11.0432
नेछ	-11.0433
्छिन्	-11.0433
hani	-11.0433
rus	-11.044
vel	-11.0441
▁सयौं	-11.0442
ुन्	-11.0442
▁Gra	-11.0443
▁attacked	-11.0444
▁recovered	-11.0446
ाधि	-11.0446
▁surprised	-11.0449
अध्यक्ष	-11.0449
▁महिनाअघि	-11.0452
भक्त	-11.0453
▁सक्छु	-11.0454
▁miles	-11.0455
▁Karnali	-11.0455
▁बढुवा	-11.0457
▁qualification	-11.0457
▁व्यक्तित्व	-11.0459
▁३६	-11.0461
▁डेढ	-11.0464
gue	-11.0465
bhane	-11.0465
▁शिक्षण	-11.0466
Name	-11.0467
▁पढे	-11.0467
eg	-11.0467
२३	-11.0468
२८	-11.0468
▁गणेश	-11.0468
▁खल	-11.0469
▁Trade	-11.047
▁Bhaktapur	-11.0472
▁taxes	-11.0472
▁count	-11.0472
तिमीहरू	-11.0482
स्र	-11.0483
▁पसिना	-11.0484
▁पुराना	-11.0486
60	-11.0487
jya	-11.0488
sky	-11.0488
Local	-11.0489
▁ढु	-11.0489
sor	-11.0489
▁दया	-11.049
hima	-11.049
▁Tourism	-11.0492
▁software	-11.0493
▁centers	-11.0493
▁On	-11.0494
▁कार्यहरू	-11.0495
▁गाड	-11.0497
▁आश्चर्यचकित	-11.0498
रात	-11.05
▁destination	-11.05
adhya	-11.05
▁प्याक	-11.05
▁उनीहरुको	-11.0501
▁learned	-11.0505
▁पाठ्यक्रम	-11.0505
lig	-11.0507
श्रम	-11.051
फेरि	-11.051
▁actions	-11.0511
ियाको	-11.0512
▁खुद	-11.0512
क्य	-11.0514
▁3,000	-11.0516
स्ति	-11.0518
▁वक्तव्यमा	-11.0519
▁किसिमका	-11.052
▁छौँ	-11.052
▁elsewhere	-11.052
▁कमजोरी	-11.0521
▁mistake	-11.0522
▁गुट	-11.0522
▁जस	-11.0524
▁corrupt	-11.0525
चौ	-11.0525
DR	-11.0526
हिल	-11.0527
bhakta	-11.0528
▁इमान्दार	-11.0532
▁w	-11.0532
्मा	-11.0533
kit	-11.0535
२७	-11.0535
oc	-11.0536
स्को	-11.0537
प्रेमी	-11.0539
▁Dalit	-11.054
hale	-11.0542
▁introduced	-11.0542
▁कोट	-11.0544
याँ	-11.0544
▁banking	-11.0547
▁भाषाको	-11.0552
नीको	-11.0554
▁ताप	-11.0554
slai	-11.0557
तिन	-11.0558
▁Or	-11.056
िदिन	-11.0561
हरुबाट	-11.0561
▁लिन्छ	-11.0562
▁smooth	-11.0564
IN	-11.0566
Un	-11.0566
▁finished	-11.0568
ज्	-11.0569
▁singing	-11.0569
▁acts	-11.0569
▁शिर	-11.0573
▁आदर्श	-11.0574
ाद	-11.0576
▁अमेरिकाले	-11.0577
▁स्विच	-11.0578
विज्ञ	-11.0578
nasak	-11.0578
lum	-11.0578
▁properly	-11.0579
▁शहरहरू	-11.058
उच्च	-11.058
▁शताब्दी	-11.0581
ute	-11.0581
▁centre	-11.0582
▁Republican	-11.0582
▁systems	-11.0582
अनुरूप	-11.0584
▁मोह	-11.0585
▁Information	-11.0585
ब्रि	-11.0585
▁उद्यमी	-11.0585
▁पूरै	-11.0587
▁occurred	-11.0587
ball	-11.0588
क्ट	-11.0591
▁नभएर	-11.0594
▁भिन्न	-11.0597
▁समुदायको	-11.0598
hata	-11.0601
▁पढ्ने	-11.0602
▁गर्नुको	-11.0602
▁उद्घाटन	-11.0603
▁soul	-11.0604
▁छोराछोरी	-11.0608
▁आफन्त	-11.0609
nma	-11.0609
▁ललितपुर	-11.0611
▁chosen	-11.0612
▁विष	-11.0616
▁पोल	-11.0618
col	-11.0619
्ना	-11.0619
्टर	-11.0621
▁प्रबन्ध	-11.0621
yatra	-11.0621
▁हुर्क	-11.0622
▁पठाएको	-11.0622
सम्	-11.0624
▁शोषण	-11.0626
▁sick	-11.0632
are	-11.0636
yuwa	-11.0636
82	-11.0637
▁rent	-11.0638
बाटो	-11.0638
र्ण	-11.0639
▁बास	-11.0639
ब्य	-11.0639
क्वा	-11.0639
▁deposit	-11.0639
▁राम्रोसँग	-11.0641
▁प्वाल	-11.0642
्ज	-11.0644
रानी	-11.0647
▁seriously	-11.0647
ory	-11.0648
▁पढाइ	-11.0649
ld	-11.065
▁fulfilled	-11.065
ER	-11.0651
▁Ganesh	-11.0651
लास	-11.0652
▁दुरुपयोग	-11.0654
प्रहरीले	-11.0654
▁foundation	-11.0655
rim	-11.0656
▁Constitution	-11.0657
▁hospitals	-11.0659
ाइदिए	-11.0659
कका	-11.066
▁विषयवस्तु	-11.0661
▁Bista	-11.0661
▁gathering	-11.0662
भेट	-11.0662
क्सन	-11.0666
▁gift	-11.0668
लाले	-11.067
tung	-11.067
anya	-11.0671
▁वित्त	-11.0672
समाज	-11.0673
▁rivers	-11.0674
▁असामान्य	-11.0674
▁dropped	-11.0676
▁Nepalgunj	-11.0681
▁दक्ष	-11.0681
▁initial	-11.0682
तको	-11.0687
▁drop	-11.0687
तापूर्वक	-11.0688
्याए	-11.0689
▁पोखरेल	-11.069
▁क्लिनिक	-11.0692
▁मानिने	-11.0693
▁teach	-11.0694
▁अधिवेशन	-11.0699
▁fields	-11.0701
टेक	-11.0701
▁घुस	-11.0701
▁chemical	-11.0704
न्थ	-11.0704
▁नजिकको	-11.0707
▁भएपनि	-11.0707
▁critical	-11.0707
west	-11.0709
▁गेट	-11.0711
pya	-11.0711
▁device	-11.0714
▁झि	-11.0715
▁बेन	-11.0716
▁नृत्य	-11.0717
▁decline	-11.0717
▁reflect	-11.0717
ev	-11.0719
▁academic	-11.0721
▁गाउँपालिका	-11.0722
▁शून्य	-11.0723
▁अगुवा	-11.0725
बीचमा	-11.0725
▁burden	-11.0727
▁देखेका	-11.0727
▁gender	-11.0727
Minister	-11.0727
▁झर	-11.0729
BA	-11.0729
किङ	-11.073
रस	-11.0731
▁twice	-11.0732
▁प्रयोजनको	-11.0732
▁objectives	-11.0734
▁कुरालाई	-11.0736
▁existence	-11.0737
▁ownership	-11.0739
सिल	-11.074
▁deployed	-11.0741
कम्पनी	-11.0743
▁conversation	-11.0744
▁चेक	-11.0747
▁editor	-11.0752
asangai	-11.0752
▁script	-11.0755
▁रक्सी	-11.0755
prakash	-11.0756
▁Body	-11.0756
ket	-11.0758
hama	-11.0761
aundai	-11.0764
विक्रम	-11.0764
vas	-11.0764
▁माध्यमिक	-11.0767
▁अनुवाद	-11.0767
जेन	-11.0768
कता	-11.0769
खाना	-11.0771
▁मोटरसाइकल	-11.0772
▁तिमीहरु	-11.0772
▁fresh	-11.0772
dekh	-11.0776
यति	-11.0776
▁bottom	-11.0778
▁काङ्ग्रेस	-11.078
▁Sports	-11.0783
▁दलको	-11.0787
▁permit	-11.0787
▁श्र	-11.0787
unda	-11.0788
▁seat	-11.0788
परिवार	-11.0788
▁सार्न	-11.079
▁प्रणालीको	-11.0791
▁whatever	-11.0791
ges	-11.0793
▁chair	-11.0795
▁देख्ने	-11.0795
thar	-11.0796
▁नसकिने	-11.0796
▁Brown	-11.0797
▁pace	-11.0798
yale	-11.0799
सिप	-11.08
▁बुझे	-11.0802
▁भारतका	-11.0803
▁वासिङ्टन	-11.0803
rum	-11.0804
▁writer	-11.081
▁500	-11.0813
▁स्ट	-11.0818
▁अष्ट्रेलिया	-11.0819
्सका	-11.0824
mara	-11.0825
लाम	-11.0827
▁निकाल्न	-11.0828
shma	-11.0828
▁वेदी	-11.0833
▁accidentally	-11.0835
▁विश्वको	-11.0835
▁Gazette	-11.084
▁link	-11.0841
शाला	-11.0841
▁Q	-11.0842
SP	-11.0845
▁बाँच	-11.0845
मूल्य	-11.0846
▁नपर्ने	-11.0847
▁सङ्गठन	-11.0847
▁Per	-11.0848
चक	-11.0848
▁खोले	-11.085
▁हानि	-11.0851
padh	-11.0855
plo	-11.0856
िरहने	-11.0857
then	-11.0859
▁महिलालाई	-11.0861
टमा	-11.0861
zo	-11.0861
▁machine	-11.0861
▁Madhesh	-11.0862
▁प्रदायक	-11.0863
▁associated	-11.0864
िन्थ्यो	-11.0866
Bi	-11.0866
▁रहनु	-11.0866
Or	-11.0867
▁अधिराज्य	-11.0867
Se	-11.087
Until	-11.087
▁rid	-11.087
इड	-11.0871
▁उपभोग	-11.0873
▁तिन	-11.0873
छि	-11.0873
▁photo	-11.0873
ranga	-11.0876
▁गराए	-11.0876
▁सुने	-11.0879
▁ब्राउज	-11.0879
हाम	-11.0882
▁तहको	-11.0883
बापत	-11.0883
▁२००१	-11.0885
▁Centre	-11.0886
▁बारे	-11.0886
▁bull	-11.0887
harubich	-11.0887
▁राष्ट्रसंघीय	-11.0888
uth	-11.089
यम	-11.089
▁temporary	-11.0892
▁उपेक्षा	-11.0892
lah	-11.0892
kla	-11.0893
▁छुट्ट	-11.0893
▁प्रशासनिक	-11.0895
▁satisfied	-11.0897
▁Zone	-11.0899
kel	-11.09
▁पचास	-11.0901
▁Korean	-11.0903
▁रोड	-11.0905
▁Mc	-11.0907
▁खपत	-11.0907
fil	-11.0909
तमा	-11.0909
▁बोट	-11.0909
shastra	-11.091
्लो	-11.091
mali	-11.0911
nder	-11.0911
sy	-11.0912
▁मातृ	-11.0913
▁vegetables	-11.0913
▁southern	-11.0914
janya	-11.0917
▁एकीकरण	-11.0918
▁बीउ	-11.092
▁Ber	-11.092
▁मिनेटमा	-11.0921
गञ्ज	-11.0924
▁flood	-11.0924
उड	-11.0925
▁हेक्टर	-11.0927
ाउँदछ	-11.0927
▁नहुँदा	-11.0928
ON	-11.0928
▁Xi	-11.0928
▁trend	-11.0929
ुपर्यो	-11.0931
▁contributed	-11.0933
▁2015	-11.0933
नेर	-11.0934
5,000	-11.0934
▁tower	-11.0936
▁संलग्नता	-11.0936
wn	-11.0939
jin	-11.0941
▁रेष्टुरेन्ट	-11.0942
▁sensitive	-11.0943
▁तिहाई	-11.0943
wyakti	-11.0944
▁नल	-11.0945
फिल्म	-11.0946
▁gra	-11.0948
▁उत्पादनको	-11.0949
भूकम्प	-11.0951
२००७	-11.0952
ites	-11.0953
▁stressed	-11.0953
▁बाँच्न	-11.0954
मनले	-11.0956
▁heat	-11.0959
कार्यक्रम	-11.0959
▁Bel	-11.0962
▁provincial	-11.0966
aru	-11.0968
▁हात्ती	-11.0968
▁plane	-11.0969
▁त्रैमासिकमा	-11.0969
▁strength	-11.0969
▁identify	-11.097
▁tired	-11.097
wik	-11.0972
▁महसुल	-11.0973
▁earnings	-11.0975
▁बराबरको	-11.0975
puja	-11.0978
िफ	-11.098
थर	-11.0981
hak	-11.0981
जीव	-11.0982
शान्ति	-11.0984
▁declaration	-11.0984
ट्टी	-11.0984
▁फैसला	-11.0984
▁उनकी	-11.0985
▁layer	-11.0986
▁Morang	-11.0991
▁dust	-11.0991
▁मलेसिया	-11.0992
▁जाल	-11.0993
▁activists	-11.0995
▁विरोधमा	-11.0996
zer	-11.0996
▁पञ्चायत	-11.0996
▁उनीहरुले	-11.0997
▁cu	-11.0997
▁anywhere	-11.0998
▁झापा	-11.0999
▁सक्नु	-11.1
▁प्रतिकूल	-11.1002
pancha	-11.1002
▁परा	-11.1002
▁विलियम	-11.1011
play	-11.1013
▁withdraw	-11.1014
mid	-11.1014
▁सकिनेछ	-11.1017
▁निजले	-11.1017
▁45	-11.1018
ासाथ	-11.102
▁concluded	-11.1023
▁कुर्	-11.1024
▁Malla	-11.1024
▁encourage	-11.1024
▁छाती	-11.1025
nim	-11.1025
▁निर्धारित	-11.1028
Unable	-11.1028
▁broadcast	-11.1028
▁connect	-11.103
२९	-11.1031
▁गैरसरकारी	-11.1031
▁प्रोफाइल	-11.1031
ेरा	-11.1032
▁किन्न	-11.1033
्दछन्	-11.1035
रेज	-11.1036
▁driving	-11.1036
▁चल्ने	-11.1036
mama	-11.1038
प्ले	-11.1038
▁नवीन	-11.1039
▁प्रतिवेदनले	-11.1039
▁described	-11.1041
ँग	-11.1043
▁समाजको	-11.1043
▁pop	-11.1044
त्रि	-11.1045
▁danger	-11.1046
▁mixed	-11.1047
▁विश्वस्त	-11.1048
pit	-11.1048
Al	-11.1049
▁ट्रम्प	-11.105
घात	-11.1051
zz	-11.1052
asanga	-11.1053
▁आकर्षक	-11.1053
▁३००	-11.1056
▁पाउनु	-11.1059
टेन	-11.1061
▁मात्रा	-11.1066
्सन	-11.1067
chitra	-11.1068
▁competitive	-11.1071
▁electronic	-11.1071
-0	-11.1071
▁advantage	-11.1072
=	-11.1073
▁समाविष्ट	-11.1077
नेल	-11.1077
स्टोन	-11.1082
▁Peter	-11.1082
▁भक्तपुर	-11.1082
▁घु	-11.1082
▁जाँचबुझ	-11.1083
▁भाँच	-11.1084
▁businesses	-11.1084
▁यि	-11.1084
हू	-11.1086
▁voters	-11.1086
▁हिड	-11.1086
▁गोर	-11.1087
dhani	-11.1088
▁ठग	-11.109
लन	-11.1091
▁विद्यार्थीलाई	-11.1092
▁२०१५	-11.1093
▁unless	-11.1094
▁रोबर्ट	-11.1095
ूट	-11.11
▁भाँडा	-11.1101
▁रत्न	-11.1105
▁वु	-11.1106
▁revealed	-11.1106
▁नक्कली	-11.1109
▁ऋतु	-11.111
ens	-11.1112
धाम	-11.1112
▁Representatives	-11.1112
▁मेयर	-11.1112
▁experienced	-11.1113
▁assistant	-11.1115
ट्या	-11.1115
hira	-11.1115
mukh	-11.1117
▁imported	-11.1118
▁ढुवानी	-11.1118
rot	-11.1118
पेट	-11.112
▁symbol	-11.112
oth	-11.1123
▁जन्मेका	-11.1125
kta	-11.1126
▁पक	-11.1127
▁कर्णाली	-11.1128
▁२००३	-11.1131
▁Ab	-11.1132
▁संवेदनशील	-11.1132
▁please	-11.1134
vol	-11.1134
▁सङ्कलन	-11.1135
▁confusion	-11.1135
▁joy	-11.1135
▁सिन्	-11.1137
aj	-11.1138
yauna	-11.114
▁threat	-11.1141
ुका	-11.1142
▁सूत्र	-11.1144
AL	-11.1144
▁चौकी	-11.1147
▁आविष्कार	-11.1147
▁republic	-11.1147
▁प्रविधिको	-11.1148
▁figure	-11.115
▁जर्मन	-11.1151
eng	-11.1154
▁disabled	-11.1155
▁Kar	-11.1156
▁2,	-11.1159
पक	-11.116
▁spoken	-11.1163
▁सातौं	-11.1164
▁origin	-11.1166
▁फ्रेम	-11.1167
pli	-11.1169
यसर्थ	-11.1171
Her	-11.1173
▁दुःखी	-11.1173
yer	-11.1175
Ex	-11.1178
▁federalism	-11.1178
dit	-11.1179
▁नदीको	-11.118
कानिम्ति	-11.118
resh	-11.1183
लान	-11.1184
kma	-11.1184
▁प्रदर्शनी	-11.1185
्याएर	-11.1189
▁बैठकको	-11.1189
▁walked	-11.119
▁प्रतीक	-11.1193
▁तिर्न	-11.1193
▁individuals	-11.1193
▁Research	-11.1194
▁दूरी	-11.1194
▁फर	-11.1195
down	-11.1198
▁दुईजना	-11.1201
mic	-11.1202
▁स्ट्र	-11.1202
ण्डी	-11.1203
▁fo	-11.1203
▁थे	-11.1206
क्रो	-11.1208
ध्य	-11.1209
ियाले	-11.1212
दिने	-11.1213
▁फस	-11.1214
▁preparations	-11.1216
▁वसन्त	-11.1217
cham	-11.1217
▁बहादुर	-11.1217
▁hydropower	-11.1218
ela	-11.122
▁चिनिने	-11.1223
▁घिमिरे	-11.1224
जमा	-11.1224
▁रोक्ने	-11.1225
▁brain	-11.123
▁cloud	-11.123
बू	-11.123
मस	-11.123
▁मन्त्रालयको	-11.1231
ret	-11.1231
कतिपय	-11.1233
▁समयदेखि	-11.1234
▁German	-11.1235
▁प्रहरीको	-11.1237
िएन	-11.1238
पल्ट	-11.1239
▁letters	-11.1239
▁valid	-11.1241
Ca	-11.1241
lik	-11.1241
jile	-11.1242
मेरा	-11.1242
▁मुद्दाहरू	-11.1242
▁फेसबुक	-11.1244
▁arrangement	-11.1245
nit	-11.1245
▁band	-11.1246
burg	-11.1248
ाइँ	-11.1248
llo	-11.1249
gadi	-11.125
▁foreigners	-11.1252
▁surface	-11.1253
हाङ	-11.1254
▁suddenly	-11.1255
लाइट	-11.1256
▁आयोजनाको	-11.1256
▁उत्तिकै	-11.1259
ियम	-11.1259
▁transferred	-11.126
▁कपाल	-11.1262
▁हेरेर	-11.1263
▁burn	-11.1263
RI	-11.1263
▁बाध्यता	-11.1264
▁scientific	-11.1265
बर्	-11.1266
भान	-11.1266
▁संस्थापक	-11.1267
▁disaster	-11.1269
sya	-11.127
▁celebrated	-11.1274
▁pictures	-11.1275
▁George	-11.1277
▁छायाँ	-11.1277
▁घुँडा	-11.1277
टल	-11.1277
▁taught	-11.1278
▁Five	-11.1278
▁देखिए	-11.1278
bon	-11.1279
uttar	-11.1279
▁मानवीय	-11.1283
Are	-11.1285
▁लेख्ने	-11.1285
▁audit	-11.1285
▁tribe	-11.1287
▁print	-11.1289
▁निस्के	-11.1289
▁terrible	-11.1289
▁भीम	-11.1291
▁चारैतिर	-11.1291
▁features	-11.1293
यौ	-11.1294
auli	-11.1296
▁प्रतिपक्षी	-11.1297
त्ती	-11.1297
▁governments	-11.1298
रहरू	-11.13
▁३४	-11.13
▁विरूद्ध	-11.1302
▁2003	-11.1303
rika	-11.1304
▁माझ	-11.1305
▁सदस्यले	-11.1307
▁सैन्य	-11.1308
mission	-11.1308
▁छे	-11.1309
Later	-11.1309
▁दशैं	-11.1312
-4	-11.1313
▁guide	-11.1313
dasha	-11.1315
ाउदै	-11.1316
▁सकिएन	-11.1318
▁हदसम्म	-11.132
▁shut	-11.1322
▁visited	-11.1323
▁जित्यो	-11.1323
▁दोहोर	-11.1324
सामान्य	-11.1325
मार्क	-11.1325
साम	-11.133
▁भ्रमणमा	-11.133
mak	-11.133
▁प्रतिरोध	-11.1332
▁pitch	-11.1333
▁Kong	-11.1334
asamma	-11.1335
▁tour	-11.1335
हाइ	-11.1335
कुन	-11.1336
▁shape	-11.1341
ual	-11.1341
cation	-11.1341
म्पा	-11.1342
ंश	-11.1343
SA	-11.1343
dhe	-11.1343
ndra	-11.1345
wich	-11.1348
▁leg	-11.1348
▁Hong	-11.1348
nel	-11.1349
biruddha	-11.1349
▁regime	-11.1351
ाइदिन	-11.1351
▁politicians	-11.1351
्युट	-11.1351
sol	-11.1352
न्युयोर्क	-11.1353
▁मौसमी	-11.1354
▁priests	-11.1355
▁चाड	-11.1355
▁EU	-11.1355
▁garden	-11.1355
▁En	-11.1356
▁images	-11.1358
ट्र	-11.136
tz	-11.1363
▁principles	-11.1368
▁ग्रीष्म	-11.1369
▁लहर	-11.137
chhau	-11.137
▁देखिन्छन्	-11.1372
▁treat	-11.1372
्थ	-11.1373
मुख्य	-11.1373
▁criticism	-11.1373
▁हटाउने	-11.1375
श्च	-11.1375
मैत्री	-11.1375
rop	-11.1376
Apart	-11.1378
pon	-11.1378
▁छनोट	-11.138
org	-11.138
ूर	-11.1381
▁compete	-11.1386
tory	-11.1389
▁नु	-11.139
रामा	-11.1391
▁residence	-11.1391
▁Sen	-11.1394
baj	-11.1394
▁भेटे	-11.1395
hri	-11.1396
shankar	-11.1397
▁smoke	-11.1397
▁आएपछि	-11.1398
▁राख्दै	-11.1398
▁UCPN	-11.1398
▁घटनाहरू	-11.1399
gul	-11.1399
wish	-11.14
▁हालसम्म	-11.1402
ुला	-11.1402
pic	-11.1404
सीको	-11.1405
rt	-11.1406
▁practices	-11.1409
▁achievement	-11.1409
▁underway	-11.1411
मार्फत्	-11.1411
▁सरुवा	-11.1414
▁square	-11.1417
▁चाँदी	-11.1418
▁चर	-11.1419
▁राखिएका	-11.1419
▁ढाँचामा	-11.1419
▁स्नातक	-11.142
▁friendly	-11.142
▁रासायनिक	-11.1421
▁अग्रणी	-11.1421
न्डो	-11.1422
▁अँध्यारो	-11.1422
▁भरिएको	-11.1422
▁ह्वाइट	-11.1423
▁स्तन	-11.1423
wada	-11.1424
▁ओभर	-11.1427
▁बोक्ने	-11.1429
▁assist	-11.1429
▁Ran	-11.1429
▁ठोक	-11.1433
ियामा	-11.1433
पक्षीय	-11.1433
२६	-11.1434
00,000	-11.144
लामो	-11.1441
▁क्याम्प	-11.1441
▁directory	-11.1442
▁विना	-11.1442
लेट	-11.1442
▁गर्दैछ	-11.1443
▁transaction	-11.1444
rap	-11.1445
aki	-11.1446
भिल	-11.1447
▁offence	-11.1448
ुपर्दछ	-11.145
ँच	-11.145
वेयर	-11.145
vina	-11.1451
▁्	-11.1451
▁putting	-11.1451
▁कुराहरु	-11.1451
▁regions	-11.1452
▁राजनैतिक	-11.1452
yard	-11.1452
ल्फ	-11.1454
प्ट	-11.1454
्के	-11.1455
▁helicopter	-11.1457
▁scale	-11.1458
▁खनिज	-11.1459
▁wine	-11.1459
▁स्ट्रिट	-11.1462
्को	-11.1463
▁fashion	-11.1464
▁सेनाले	-11.1464
न्ना	-11.1464
्जे	-11.1464
▁भेडा	-11.1465
▁चाहिने	-11.1465
िदिनु	-11.1466
kako	-11.1469
▁wish	-11.147
▁Mer	-11.1471
शाही	-11.1471
mah	-11.1471
Currently	-11.1471
▁तुलना	-11.1474
ज्ज	-11.1474
निस	-11.1475
not	-11.1477
ोज	-11.1478
ज्या	-11.1481
सात	-11.1482
डेल	-11.1482
▁buying	-11.1484
▁2007,	-11.1492
▁mainly	-11.1492
▁$3	-11.1493
▁निष्कासन	-11.1494
▁घाँस	-11.1495
▁उमेरमा	-11.1495
▁दावी	-11.1495
73	-11.1496
▁suit	-11.1496
lle	-11.1497
▁बस्नु	-11.1497
kes	-11.1497
सम्ममा	-11.1498
▁जोशी	-11.1499
माई	-11.1499
▁ल्याउनु	-11.15
त्यसै	-11.15
late	-11.1502
▁जंगल	-11.1502
▁बजारको	-11.1505
▁देशलाई	-11.1505
ग्रे	-11.1505
बोल	-11.1507
▁Art	-11.1507
ural	-11.1508
बरु	-11.1508
▁स्रोतले	-11.1509
tting	-11.1512
▁येशूले	-11.1512
▁struck	-11.1512
ano	-11.1513
▁सिल	-11.1513
▁सूचीकृत	-11.1515
मानव	-11.1517
pau	-11.1518
▁विस्थापित	-11.152
▁Pun	-11.1522
▁प्ला	-11.1522
▁सभामुख	-11.1525
▁wealth	-11.1526
भूत	-11.1528
▁भन्छ	-11.1529
▁gar	-11.153
isakeko	-11.153
▁विपत्ति	-11.1532
▁लगाउनु	-11.1532
adhyaksha	-11.1532
गम	-11.1533
bhog	-11.1534
▁शासक	-11.1535
यौं	-11.1535
▁प्रसाद	-11.1536
▁villagers	-11.1537
ैपर्छ	-11.1537
यसबाट	-11.1543
्वे	-11.1543
▁सावधानीपूर्वक	-11.1543
▁installed	-11.1543
कुर	-11.1544
erry	-11.1544
▁राति	-11.1548
▁बालबालिकालाई	-11.1548
▁वन्यजन्तु	-11.1549
▁कौ	-11.155
र्ता	-11.1551
कस	-11.1552
डिङ	-11.1553
▁टर्	-11.1553
fect	-11.1553
▁80	-11.1554
▁bird	-11.1554
book	-11.1554
▁obligation	-11.1555
▁tendency	-11.1555
▁requested	-11.1559
▁treaty	-11.156
▁hunger	-11.1561
sas	-11.1561
▁वास्तविकता	-11.1561
तान	-11.1563
glo	-11.1566
▁नबन	-11.1569
▁तिम्रा	-11.1569
▁निर्माणमा	-11.157
▁cutting	-11.1571
▁communist	-11.1572
tim	-11.1573
▁crops	-11.1575
▁आउँछन्	-11.1575
▁ja	-11.1576
ros	-11.1578
▁प्रतिशतभन्दा	-11.1579
ratna	-11.158
udha	-11.158
▁उद्धरण	-11.1586
amba	-11.1587
▁अर	-11.1592
▁hidden	-11.1592
र्ष	-11.1592
▁automatically	-11.1592
न्ती	-11.1592
▁flying	-11.1592
nlai	-11.1596
्यान	-11.1597
▁पार्नु	-11.1603
▁Pushpa	-11.1603
▁Lanka	-11.1604
▁advertising	-11.1604
▁usually	-11.1606
ich	-11.1607
ाश	-11.1608
nupar	-11.1612
▁परिवारले	-11.1612
gon	-11.1613
▁नपाउने	-11.1613
24	-11.1613
▁गौ	-11.1614
riko	-11.1615
▁3-	-11.1615
ीहरूले	-11.1618
पालिका	-11.1618
िरहनु	-11.1619
ancy	-11.162
amp	-11.162
ेला	-11.1621
▁ongoing	-11.1623
▁३७	-11.1623
parne	-11.1624
▁प्रजातन्त्रको	-11.1627
▁Dang	-11.1628
wana	-11.1629
▁pollution	-11.1629
▁admitted	-11.1629
▁roof	-11.1629
▁दीप	-11.163
▁Saudi	-11.1631
wama	-11.1631
▁enemy	-11.1635
▁institute	-11.1635
▁70	-11.1636
▁partnership	-11.1636
▁देवता	-11.1639
▁Bas	-11.164
ाउँथे	-11.164
▁बाह्य	-11.164
िव	-11.1641
▁blue	-11.1641
▁सरह	-11.1644
▁farm	-11.1644
ganga	-11.1646
▁दूर	-11.1647
▁धूलो	-11.1647
कम्पनीले	-11.1649
्यता	-11.1649
gate	-11.165
▁खानी	-11.1651
▁सक्तैन	-11.1651
▁resolution	-11.1654
▁पारिश्रमिक	-11.1654
▁परमेश्वरलाई	-11.1657
सामाजिक	-11.166
▁Amendment	-11.166
▁custody	-11.166
▁समर्पित	-11.166
▁गरिबी	-11.1665
विरूद्ध	-11.1666
nirman	-11.1666
▁गिर	-11.1666
त्रो	-11.1667
सय	-11.1667
▁Eli	-11.167
▁Lumbini	-11.1671
Without	-11.1672
▁नोकर	-11.1672
▁Investigation	-11.1678
▁कांग्रेसका	-11.1679
▁collecting	-11.1681
▁ट्रेड	-11.1682
िङमा	-11.1683
rn	-11.1684
▁३८	-11.1686
▁गई	-11.1688
lako	-11.1688
▁छाडे	-11.169
▁deputy	-11.1691
▁काउन्टी	-11.1691
▁स्वरूप	-11.1692
▁प्रशासनले	-11.1695
▁Open	-11.1696
▁learning	-11.1696
cast	-11.1697
संघ	-11.1699
▁फैलिएको	-11.17
▁Youth	-11.1701
?'	-11.1701
▁ये	-11.1701
▁visiting	-11.1701
जहाँ	-11.1702
ाइयो	-11.1702
▁definitely	-11.1703
▁विश्राम	-11.1703
कृषि	-11.1703
▁मानिनेछ	-11.1705
▁काली	-11.1705
४७	-11.1709
▁Cricket	-11.1709
80	-11.1711
षण	-11.1711
▁मर्ने	-11.1713
▁recognized	-11.1715
▁संसदमा	-11.1716
कुण्ड	-11.1716
ष्य	-11.1716
नव	-11.1717
▁kick	-11.1719
▁cabinet	-11.1722
▁enhance	-11.1722
▁unique	-11.1722
▁नतिजा	-11.1722
▁semi	-11.1723
dul	-11.1723
▁tests	-11.1724
▁उपयोगी	-11.1729
▁Fu	-11.1729
▁expert	-11.1729
▁sugar	-11.173
ray	-11.173
▁मितिले	-11.1731
int	-11.1733
▁attract	-11.1734
स्तरमा	-11.1734
िङको	-11.1735
▁सदस्यहरु	-11.1736
gati	-11.1736
▁fit	-11.1737
khana	-11.1737
▁गरौं	-11.174
▁बादल	-11.174
ङ्गी	-11.1742
वाह	-11.1743
▁cinema	-11.1745
▁transportation	-11.1745
▁प्रिमियर	-11.1747
▁resident	-11.1748
▁समा	-11.1748
▁खनाल	-11.1749
▁मन्दिरमा	-11.175
ification	-11.175
ase	-11.1752
ikai	-11.1753
▁सन	-11.1754
▁promised	-11.1755
▁शिशु	-11.1755
▁bag	-11.1755
▁stability	-11.176
▁एल्बम	-11.176
arch	-11.1761
▁Min	-11.1761
२००	-11.1761
▁कालि	-11.1762
▁शेर्पा	-11.1766
RE	-11.1766
▁शेरबहादुर	-11.1766
Just	-11.1769
▁२०१७	-11.1769
▁विद्रोही	-11.1769
▁concrete	-11.1772
▁महिलाले	-11.1775
उनीहरु	-11.1776
▁वेद	-11.1776
▁securities	-11.1778
▁आइपुगे	-11.1779
▁निर्वाह	-11.1779
irahanu	-11.178
▁लडे	-11.1783
▁मार्न	-11.1783
▁प्राधिकरणले	-11.1783
▁assets	-11.1785
▁दायाँ	-11.1785
kesh	-11.1785
▁feed	-11.1785
ाएपछि	-11.1786
▁Society	-11.1788
var	-11.1791
▁previously	-11.1794
▁32	-11.1795
▁estimate	-11.1796
▁bright	-11.1797
▁पुग्छ	-11.1798
75	-11.1799
▁जवान	-11.18
Save	-11.18
▁excellent	-11.1803
cept	-11.1804
gor	-11.1804
▁बच्न	-11.1807
▁टर्की	-11.1808
▁याकूब	-11.1809
badi	-11.181
pers	-11.181
▁द्रष्टव्य	-11.1811
cia	-11.1816
▁काउन्सिल	-11.1816
▁yards	-11.1816
az	-11.1817
▁Fe	-11.1818
▁Insurance	-11.1819
▁dismissed	-11.182
▁राजपत्रमा	-11.1821
▁plastic	-11.1822
Member	-11.1823
स्टो	-11.1824
▁फाल	-11.1825
▁चर्चित	-11.1825
म्भ	-11.1825
▁feature	-11.1825
aga	-11.1826
▁शर्माले	-11.1827
▁medal	-11.1828
कलाई	-11.1828
▁राम्ररी	-11.1828
जस	-11.1829
Enter	-11.1829
chari	-11.183
als	-11.1831
शहर	-11.1831
ेश्वरी	-11.1832
▁Pan	-11.1834
▁स्पेन	-11.1835
▁fi	-11.1839
तले	-11.1839
▁साहित्यिक	-11.1841
▁युद्धमा	-11.1841
▁वाक्य	-11.1843
St	-11.1844
जेल	-11.1846
mart	-11.1847
nile	-11.1847
ुहुनेछ	-11.1851
▁मौ	-11.1851
▁उद्	-11.1852
▁deficit	-11.1854
▁pure	-11.1855
ून	-11.1857
▁मार्गदर्शन	-11.186
▁wave	-11.1861
lko	-11.1861
▁My	-11.1861
▁मासिक	-11.1862
▁boat	-11.1862
▁फिल्टर	-11.1863
▁praise	-11.1863
▁अनावश्यक	-11.1865
▁चुनावमा	-11.1865
ग्रि	-11.1866
▁मृत	-11.1866
▁तुरुन्त	-11.1868
लीमा	-11.1868
▁shortage	-11.1868
▁quite	-11.1869
▁Robert	-11.187
▁श्रोता	-11.187
▁interesting	-11.1871
▁log	-11.1871
▁हजुर	-11.1878
▁Green	-11.1879
fan	-11.1879
TA	-11.1883
▁बायो	-11.1883
▁विर	-11.1883
▁atmosphere	-11.1885
▁grew	-11.1885
▁customer	-11.1885
▁writers	-11.1888
▁प्रयासमा	-11.1889
▁raw	-11.189
उनलाई	-11.1891
▁poems	-11.1893
▁निर्वाचनमा	-11.1894
▁Pradhan	-11.1895
68	-11.1896
▁suitable	-11.1899
▁पाइएको	-11.19
ov	-11.1902
स्वरूप	-11.1903
▁electric	-11.1903
▁perhaps	-11.1904
मिटर	-11.1907
थियो	-11.191
बेन	-11.1911
स्का	-11.1912
▁सुशील	-11.1914
thy	-11.1914
▁आइपुग	-11.1914
▁penalty	-11.1917
जोन	-11.1919
▁heads	-11.1921
▁Han	-11.1922
bur	-11.1922
▁emotional	-11.1923
▁stolen	-11.1923
▁हिर्काए	-11.1923
▁प्रचलन	-11.1924
▁governor	-11.1925
▁via	-11.1927
rol	-11.1929
▁County	-11.193
▁सम्मिलित	-11.193
▁गोपाल	-11.193
▁Yu	-11.1931
Behold	-11.1933
अहिलेसम्म	-11.1936
▁poll	-11.1939
▁विगतमा	-11.1939
▁नसक	-11.1941
zar	-11.1942
▁संस्थाहरु	-11.1942
▁summit	-11.1943
▁fans	-11.1948
cker	-11.1951
वश	-11.1952
ट्रि	-11.1952
jiko	-11.1953
धर	-11.1953
reg	-11.1954
भाषा	-11.1954
SOURCE	-11.1955
▁दुर्लभ	-11.1955
kash	-11.1957
sthiti	-11.1959
ोद	-11.1961
▁पहिरन	-11.1961
▁दिनुपर्ने	-11.1962
▁respond	-11.1963
▁विन	-11.1964
▁३९	-11.1964
▁कार्यकर्ताहरू	-11.1967
▁Paris	-11.1968
▁पाइयो	-11.1971
िब	-11.1971
▁extended	-11.1972
Fi	-11.1973
याङ	-11.1976
▁छान	-11.1979
▁मतदाता	-11.198
jhar	-11.1981
isation	-11.1982
lima	-11.1982
ेनी	-11.1984
▁lay	-11.1984
गर्न	-11.1985
हालको	-11.1986
खेती	-11.1986
र्ब	-11.1987
▁वार्ड	-11.1987
▁consciousness	-11.1987
▁conservation	-11.1993
राम्रो	-11.1994
▁फ्या	-11.1994
▁ब्य	-11.1994
▁detained	-11.1996
hle	-11.1999
ेक्ट	-11.2
Power	-11.2001
nyaya	-11.2002
▁gain	-11.2002
▁celebrate	-11.2003
▁terrorist	-11.2003
ाँस	-11.2003
▁विष्ट	-11.2003
ाला	-11.2004
▁Michael	-11.2006
hol	-11.2007
काबारेमा	-11.2008
▁Transport	-11.201
▁जान्छन्	-11.2012
free	-11.2013
साना	-11.2014
ौला	-11.2015
▁banned	-11.2019
▁express	-11.2019
▁सृजना	-11.2025
▁त्यसका	-11.2026
isakeka	-11.2027
▁विश्वका	-11.203
mau	-11.2031
▁थान	-11.2033
▁राजकुमार	-11.2034
▁Gold	-11.2036
त्यसकारण	-11.2038
▁ढाल	-11.2038
कार्ड	-11.2039
▁दर्जा	-11.2041
▁गुड	-11.2041
डले	-11.2042
ाइल	-11.2043
alagayat	-11.2043
▁विविधता	-11.2044
▁मुर्	-11.2044
▁प्रतिमा	-11.2046
प्रथम	-11.2046
▁honored	-11.2046
ाधिकार	-11.2047
▁मधु	-11.2047
स्त्र	-11.2049
▁पङ्क्ति	-11.205
thin	-11.2051
▁birds	-11.2053
▁इन्जिन	-11.2053
▁terrorism	-11.2054
▁signs	-11.2056
ुत	-11.2056
▁शुभ	-11.2056
ising	-11.2056
die	-11.2057
▁अन्वेषण	-11.2058
▁Oct	-11.206
▁अग	-11.206
▁यसबारे	-11.2061
▁recommended	-11.2062
केश	-11.2064
hile	-11.2065
▁poetry	-11.2066
क्ला	-11.2066
▁Col	-11.207
▁paddy	-11.207
▁Please	-11.207
▁burnt	-11.2072
▁अधिक	-11.2074
वृत्ति	-11.2075
Open	-11.2076
▁विश्लेषक	-11.2076
▁कस्	-11.2076
▁जङ्गल	-11.2076
▁Embassy	-11.2077
▁खुद्रा	-11.2078
ore	-11.2078
▁elderly	-11.2078
▁राजेन्द्र	-11.208
ami	-11.208
unt	-11.2082
▁अन्तर्	-11.2083
▁सैनिकहरू	-11.2086
Ne	-11.2086
बाजी	-11.2087
▁खोल्ने	-11.2088
▁नियमहरू	-11.2088
thali	-11.209
BS	-11.209
▁warning	-11.2091
▁प्रतिबद्ध	-11.2092
Pra	-11.2092
▁principle	-11.2095
ुहुन्थ्यो	-11.2097
िटी	-11.2097
jho	-11.21
▁नर्स	-11.2102
alko	-11.2103
ear	-11.2103
लाग्दो	-11.2104
▁जागिर	-11.2105
khet	-11.2105
▁daughters	-11.2105
▁प्रतियोगितामा	-11.2106
▁यसअघि	-11.2107
सू	-11.2107
झै	-11.2107
▁हिन्दु	-11.2108
▁initially	-11.2109
▁Magar	-11.2109
▁annually	-11.211
▁लगातार	-11.211
▁वृत्त	-11.2111
▁पूजाहारी	-11.2111
प्रणाली	-11.2111
सोमबार	-11.2112
▁लक्षण	-11.2112
▁कोरियाली	-11.2114
▁prize	-11.2115
▁प्रेरणा	-11.2115
सूची	-11.2115
▁protests	-11.2115
▁listening	-11.2116
▁attractive	-11.2116
half	-11.2117
ekale	-11.2117
▁Arab	-11.2117
▁Shri	-11.2118
▁भोजन	-11.2119
mukta	-11.2122
▁सुक	-11.2122
▁Hotel	-11.2123
▁Pre	-11.2124
ण्ट	-11.2124
▁उत्र	-11.2124
▁ग्रि	-11.2125
▁हार	-11.2127
male	-11.2127
▁couldn	-11.2128
▁राजधानीमा	-11.213
क्रममा	-11.213
Create	-11.2133
isanga	-11.2135
ananda	-11.2136
सलाई	-11.2136
▁जग्गाको	-11.2137
▁एकदमै	-11.2137
▁tribes	-11.2138
▁मान्न	-11.214
र्प	-11.2141
▁ट्रान्स	-11.2141
▁आँधी	-11.2142
रोध	-11.2143
▁राज्यले	-11.2144
र्च	-11.2144
▁Agriculture	-11.2145
ोक	-11.2146
▁With	-11.2147
▁serving	-11.2148
▁युवती	-11.2149
sap	-11.215
▁सिनेमा	-11.2152
▁क्रि	-11.2153
▁रोकिएको	-11.2155
▁विभेद	-11.2157
पुरुष	-11.2157
tek	-11.2159
▁मस्तिष्क	-11.216
ञ	-11.2161
▁अभिनेत्री	-11.2161
▁युवाहरू	-11.2164
▁suspended	-11.2166
▁यातना	-11.2168
IT	-11.2168
संगको	-11.217
get	-11.2171
▁stress	-11.2172
▁रिपोर्ट	-11.2172
▁wasn	-11.2175
Government	-11.2177
▁appoint	-11.2178
▁hilly	-11.2179
▁ओम	-11.2181
▁वैशाख	-11.2182
yn	-11.2185
shit	-11.2186
▁Wal	-11.2188
▁rejected	-11.2189
▁framed	-11.219
sata	-11.2192
▁सामूहिक	-11.2192
ौल	-11.2192
pala	-11.2194
▁सेल	-11.2194
दत्त	-11.2196
▁क्ला	-11.2205
लक	-11.2205
wed	-11.2206
▁जितेको	-11.2208
▁आपसी	-11.2208
▁गण	-11.2208
▁वर्ण	-11.221
ayo	-11.2211
sena	-11.2211
▁किनकि	-11.2211
्दिन	-11.2214
▁परिचित	-11.2214
ify	-11.2217
rako	-11.2218
▁फर्किन	-11.2218
▁attraction	-11.2219
▁CEO	-11.222
▁कसै	-11.222
lika	-11.2225
्च	-11.2225
तै	-11.2225
▁शौचालय	-11.2226
▁zero	-11.2227
▁complain	-11.2227
▁effects	-11.2229
log	-11.2229
aha	-11.2235
▁भित्री	-11.2236
▁Mohan	-11.2236
://	-11.2238
▁लुम्बिनी	-11.2239
▁कुर	-11.224
र्जन	-11.2242
▁decreased	-11.2242
und	-11.2244
bhitraka	-11.2245
▁fly	-11.2247
wishwa	-11.2248
ations	-11.2249
▁भेटघाट	-11.2249
▁complaints	-11.225
▁Joseph	-11.2251
िनले	-11.2251
▁मुल	-11.2251
▁पुष्प	-11.2252
▁strategic	-11.2253
्सी	-11.2255
▁अनुशासन	-11.226
▁जनगणना	-11.226
▁package	-11.226
▁फेब्रुअरी	-11.226
▁Bikram	-11.2261
▁प्रविष्टि	-11.2261
▁स्प	-11.2262
▁सक्छौ	-11.2263
▁दुईवटा	-11.2265
hundai	-11.2265
्याल	-11.2265
rung	-11.2266
▁पुस्तकालय	-11.2267
▁देखेको	-11.2267
▁रमेश	-11.2268
sath	-11.2269
▁फौज	-11.2271
▁After	-11.2271
▁length	-11.2272
▁practical	-11.2272
▁क्रे	-11.2274
्नेछन्	-11.2275
▁व्यवसायिक	-11.2275
swasthya	-11.2276
▁उर्	-11.2277
▁वर्गीकरण	-11.2277
▁तिल	-11.2278
▁कामहरू	-11.2279
gara	-11.2279
▁injury	-11.2279
परमेश्वरले	-11.2279
▁किरण	-11.2281
▁भौगोलिक	-11.2283
▁ल्य	-11.2283
▁punish	-11.2284
▁शत्रुहरू	-11.2285
ानन्द	-11.2287
ग्रा	-11.2289
▁शिक्षाको	-11.229
▁समानता	-11.2292
pachi	-11.2292
▁professor	-11.2292
▁consist	-11.2292
▁incidents	-11.2294
म्व	-11.2295
▁हुनुभन्दा	-11.2298
▁em	-11.2299
▁देखिँदैन	-11.23
rima	-11.2301
▁बेलायती	-11.2303
▁ग्र	-11.2303
read	-11.2306
▁street	-11.2306
▁Hill	-11.2308
▁Corp	-11.231
▁200	-11.231
▁६५	-11.231
▁दिउँसो	-11.2312
▁गठित	-11.2312
▁tenure	-11.2314
▁supporters	-11.2315
▁राज्यमा	-11.2317
होस्	-11.2317
▁पौडेलले	-11.2317
▁coalition	-11.2319
▁सिद्ध	-11.2319
khol	-11.232
▁वी	-11.2322
सेन्ट	-11.2325
euro	-11.2325
▁खेलको	-11.2329
निर्वाचन	-11.2329
git	-11.2331
▁perfect	-11.2331
▁राष्टि्रय	-11.2332
print	-11.2333
▁वक्ता	-11.2333
ida	-11.2334
नबाट	-11.2334
San	-11.2335
▁बाबुराम	-11.2335
▁push	-11.2335
▁ठाउ	-11.2337
bhaeko	-11.2337
▁हराएको	-11.2338
वार्ड	-11.2338
▁digital	-11.2339
state	-11.234
▁२०१८	-11.2341
राको	-11.2341
दू	-11.2343
▁हार्	-11.2344
▁Power	-11.2345
दीप	-11.2345
डब्लु	-11.2345
por	-11.2347
▁लैजाने	-11.2348
▁implementing	-11.2349
ghi	-11.235
▁पुस	-11.2351
bhasha	-11.2352
▁Energy	-11.2352
▁प्रकारले	-11.2354
▁icon	-11.2355
▁गुमाए	-11.2356
▁सिधा	-11.2357
dhunga	-11.2358
ब्ल	-11.2358
▁glory	-11.2358
▁silent	-11.2358
▁chest	-11.2359
मध्येको	-11.2359
suraksha	-11.236
छिन्	-11.236
▁केडीई	-11.236
▁seeds	-11.2361
▁","20	-11.2362
▁अज्ञात	-11.2364
▁folk	-11.2365
▁दुर्गम	-11.2365
▁घटनामा	-11.2367
प्या	-11.2367
▁समाजवादी	-11.2368
▁बालुवा	-11.2369
▁माइ	-11.2369
रेन्ट	-11.237
सिङ	-11.2372
▁अफिस	-11.2373
▁हुनसक्ने	-11.2373
गोल	-11.2373
▁nearby	-11.2373
▁Americans	-11.2374
▁inspection	-11.2374
Once	-11.2376
▁bilateral	-11.2378
▁Inspector	-11.2378
▁तापक्रम	-11.2382
पत	-11.2383
▁ईश्वर	-11.2385
▁राख्दछ	-11.2386
▁कारागार	-11.2387
tok	-11.2388
▁अत्यन्तै	-11.2388
देशको	-11.239
ston	-11.239
रेल	-11.2392
नागरिक	-11.2392
▁एल्	-11.2393
▁क्रिस्ट	-11.2393
▁मिशन	-11.2394
spir	-11.2395
Chairman	-11.2396
bhaga	-11.2396
hid	-11.24
tham	-11.2402
अल	-11.2405
▁sustainable	-11.2406
01	-11.2406
्याप	-11.2407
▁hat	-11.2409
Chief	-11.2409
कति	-11.241
▁पुर्याए	-11.241
▁कमिटी	-11.241
▁mail	-11.2411
▁BBC	-11.2412
▁passport	-11.2413
▁फोर	-11.2413
adhikar	-11.2414
lly	-11.2414
यत	-11.2415
▁सम्भाव्यता	-11.2416
fre	-11.2416
▁applicant	-11.2418
▁Subedi	-11.2418
छे	-11.2419
▁चलेको	-11.242
▁seventh	-11.242
▁monitor	-11.242
पश्चात	-11.2421
▁agent	-11.2421
▁बेस	-11.2421
▁offers	-11.2422
▁हराए	-11.2423
▁Exchange	-11.2425
▁entitled	-11.2425
▁रहँदा	-11.2426
jor	-11.2426
▁pieces	-11.2428
▁मारिए	-11.2429
Cha	-11.243
िँदा	-11.2431
tte	-11.2431
युवा	-11.2432
▁मुद्दाको	-11.2435
▁असहमति	-11.2437
erle	-11.2438
▁description	-11.2439
ional	-11.244
▁scar	-11.2443
▁protected	-11.2443
जाति	-11.2448
▁कर्ण	-11.2449
dwaya	-11.2452
▁attorney	-11.2452
▁violent	-11.2453
▁मिल्ने	-11.2453
▁इम	-11.2454
eri	-11.2454
▁दिदी	-11.2454
▁fallen	-11.2456
▁नगर्न	-11.2456
▁विश्वविद्यालयमा	-11.2457
हरेक	-11.2457
विदेशी	-11.2458
bud	-11.2459
▁tough	-11.2459
▁खोस	-11.246
jat	-11.2461
▁थो	-11.2461
▁बनाउँदै	-11.2462
▁Three	-11.2463
Four	-11.2465
त्यस्तो	-11.2465
▁Ch	-11.2467
ाध	-11.2467
cen	-11.247
▁Of	-11.2471
▁प्रिय	-11.2471
▁शान्तिपूर्ण	-11.2472
सिम	-11.2473
samaya	-11.2473
▁sand	-11.2477
हारी	-11.2477
▁accordingly	-11.2477
गर्ने	-11.248
▁घाम	-11.248
रोड	-11.2481
▁habit	-11.2481
▁पाएँ	-11.2482
▁Za	-11.2483
▁साइटमा	-11.2483
▁बुट	-11.2484
▁amounts	-11.2485
▁दृष्टिले	-11.2486
rma	-11.2486
▁तथ्यांक	-11.2486
that	-11.2488
▁Muslim	-11.2488
post	-11.2488
right	-11.2488
▁प्रयोगशाला	-11.249
ever	-11.2491
▁2017	-11.2494
▁extend	-11.2494
▁altar	-11.2494
बोट	-11.2494
ँडा	-11.2494
▁intellectual	-11.2494
▁Cho	-11.2494
्यै	-11.2495
▁useful	-11.2495
?”	-11.2495
नेपालले	-11.2495
▁ओछ्यानमा	-11.2496
केडीई	-11.2497
▁सज	-11.25
▁Sushil	-11.2505
▁neighboring	-11.2505
23	-11.2506
ामी	-11.2507
▁sword	-11.2509
▁आफैंले	-11.2509
▁knowing	-11.251
som	-11.2512
राग	-11.2515
vai	-11.2515
▁५५	-11.2516
▁super	-11.2516
▁निरीक्षक	-11.2519
arma	-11.2524
▁faced	-11.2524
घरमा	-11.2525
कक्ष	-11.2528
▁exhibition	-11.2528
▁preparation	-11.2528
tat	-11.253
rish	-11.253
पुस्तक	-11.2531
▁विक्रम	-11.2534
▁सभामा	-11.2535
पढ	-11.2535
क्की	-11.2536
मध्येबाट	-11.2537
samaksha	-11.2539
▁household	-11.2539
▁Two	-11.2539
▁receipt	-11.2539
▁नीलो	-11.2544
अर	-11.2546
नल	-11.2547
▁समात	-11.2548
▁सेन्टर	-11.2549
▁Pat	-11.2553
▁ताल्चा	-11.2553
▁निक्षेप	-11.2554
aro	-11.2556
foot	-11.2557
ible	-11.2558
ets	-11.2559
▁पाना	-11.2559
▁वार्तामा	-11.2561
▁सर्ज	-11.2562
जनक	-11.2562
kheti	-11.2566
jhan	-11.2566
▁Children	-11.2567
▁considering	-11.2568
▁producer	-11.2568
हाम्रा	-11.2572
▁सुन्ने	-11.2572
tis	-11.2573
/-	-11.2578
+	-11.2578
▁Sherpa	-11.2579
क्रे	-11.258
▁Himalayas	-11.258
▁प्रभावशाली	-11.2581
▁दमन	-11.2582
▁dog	-11.2583
▁परिमार्जन	-11.2587
▁hill	-11.2587
DI	-11.2589
प्रेम	-11.259
▁infection	-11.259
cel	-11.2595
▁पार्छ	-11.2595
rata	-11.2597
▁isn	-11.2598
▁समात्न	-11.2599
Though	-11.2601
▁देखाए	-11.2603
▁restaurant	-11.2603
्रिक	-11.2606
▁printed	-11.2607
▁grade	-11.2608
▁brief	-11.2608
jhu	-11.2608
धे	-11.261
oka	-11.2611
▁Metropolitan	-11.2612
▁ब्याक	-11.2613
▁भनाई	-11.2613
▁ब्रे	-11.2613
▁राष्ट्रहरू	-11.2616
▁Chau	-11.2617
चना	-11.2618
▁catch	-11.262
▁खुल्ला	-11.262
▁liberal	-11.2621
४८	-11.2621
▁जुत्ता	-11.2622
▁skilled	-11.2623
▁languages	-11.2625
▁van	-11.2626
िरहन	-11.2626
▁डब्ल्यू	-11.2627
▁सदस्यता	-11.2628
▁सुदृढीकरण	-11.2629
uro	-11.2629
मोड	-11.2631
▁2000	-11.2631
▁welcome	-11.2631
▁घरको	-11.2631
khanda	-11.2632
tala	-11.2634
शास्त्री	-11.2635
अव	-11.2638
▁मेनु	-11.2638
▁अक्षर	-11.2638
▁sat	-11.2638
▁असक्षम	-11.2639
▁Food	-11.264
बुधबार	-11.264
bichma	-11.264
▁exceeding	-11.264
▁कृषक	-11.2645
▁flowers	-11.2647
kir	-11.2647
▁बस्छन्	-11.2647
▁entity	-11.2648
serv	-11.2649
▁cheap	-11.265
▁decrease	-11.2652
िराख	-11.2654
▁दस	-11.2655
▁expanded	-11.2657
▁मदन	-11.2658
▁भर्	-11.266
lock	-11.266
▁Madhav	-11.2666
वर्तमान	-11.2666
अभि	-11.2667
बीएस	-11.2667
▁lawyer	-11.2668
Relat	-11.2668
matic	-11.267
वेद	-11.2671
▁monthly	-11.2672
▁elements	-11.2673
▁सरकारसँग	-11.2673
▁African	-11.2676
▁Gar	-11.2677
▁संकटकाल	-11.2677
▁trained	-11.2678
▁साउदी	-11.2679
▁सङ्ग्रह	-11.2679
▁kinds	-11.2679
lekha	-11.268
▁Technology	-11.268
▁नरहेको	-11.2681
कर्ताले	-11.2682
▁designed	-11.2682
▁belong	-11.2682
▁देऊ	-11.2683
ola	-11.2684
▁भत्क	-11.2684
▁businessman	-11.2687
▁व्यक्तिहरु	-11.269
▁घरपरिवार	-11.2692
▁४८	-11.2692
unu	-11.2693
▁गुणस्तरीय	-11.2693
mangal	-11.2693
▁जाडो	-11.2694
▁शाक्य	-11.2696
▁injuries	-11.2696
▁consent	-11.2696
४५	-11.2698
अर्थ	-11.2699
gum	-11.2699
णा	-11.27
ese	-11.2701
▁उपत्यकामा	-11.2702
▁II	-11.2703
uring	-11.2703
▁फलफूल	-11.2703
▁rising	-11.2703
ाउँछु	-11.2706
िसक	-11.2706
न्दा	-11.2706
▁तीनजना	-11.2706
्समा	-11.2707
▁opposed	-11.2709
▁फर्कने	-11.271
temp	-11.2711
59	-11.2712
वार्ता	-11.2713
▁Foundation	-11.2716
▁studied	-11.2716
▁Middle	-11.2717
ारो	-11.2718
deva	-11.2719
▁MPs	-11.2722
ाहरू	-11.2722
▁चक	-11.2722
ओटा	-11.2723
ाज	-11.2723
▁पक्षको	-11.2724
▁साँचो	-11.2725
ुप	-11.2726
्याएको	-11.2726
▁टेलि	-11.2726
▁अगस्ट	-11.2726
▁तेज	-11.2727
▁newly	-11.2727
▁aim	-11.2728
jel	-11.273
▁denied	-11.273
▁Dar	-11.2731
▁That	-11.2731
▁छोप	-11.2733
ेलले	-11.2733
▁procedure	-11.2735
३१	-11.2736
▁simply	-11.2737
क्रा	-11.2738
टिङ	-11.274
Pre	-11.2741
▁पिच	-11.2741
ob	-11.2742
cial	-11.2743
▁maintenance	-11.2744
▁विवेक	-11.2744
▁ब्रह्म	-11.2745
▁James	-11.2745
▁गर्नेछौं	-11.2747
ंग्	-11.2748
▁Financial	-11.2748
▁Province	-11.2749
▁champion	-11.2751
▁demonstration	-11.2751
▁exist	-11.2751
▁शीर्ष	-11.2751
▁निवास	-11.2752
▁affiliated	-11.2753
▁ध्यानमा	-11.2753
▁गरिसकेका	-11.2755
wastu	-11.2755
▁गोविन्द	-11.2756
bodh	-11.2757
ency	-11.2757
phe	-11.2758
▁producing	-11.2758
▁Chamber	-11.2758
▁stated	-11.2761
rid	-11.2761
▁भगवान	-11.2763
sika	-11.2764
▁सिके	-11.2764
हरी	-11.2764
▁उस	-11.2764
ेष्ट	-11.2764
▁dignity	-11.2765
▁recommend	-11.2766
▁पत्रकारिता	-11.2767
कर्ताको	-11.2768
▁designated	-11.2768
रियो	-11.2769
ME	-11.2769
▁मजदुर	-11.2772
▁transactions	-11.2773
▁painting	-11.2775
▁कम्पनीका	-11.2775
गं	-11.2776
▁encouraged	-11.2776
▁असुरक्षित	-11.2781
yuddha	-11.2784
nanda	-11.2784
▁गर्भवती	-11.2786
ologist	-11.2787
▁असुल	-11.2788
▁युनि	-11.2788
▁ओलम्पिक	-11.2791
▁actress	-11.2792
shtha	-11.2793
▁Can	-11.2794
िंदै	-11.2795
▁उल्ट	-11.2796
उस	-11.2797
▁im	-11.2797
मिर	-11.2797
▁यता	-11.2798
eb	-11.2798
खर्क	-11.28
▁attended	-11.2802
▁storm	-11.2802
▁पल	-11.2803
▁neighbor	-11.2805
िस्तान	-11.2805
▁मैदानमा	-11.2807
Any	-11.281
▁awarded	-11.2811
▁जिन	-11.2811
▁मरेका	-11.2811
▁worse	-11.2813
▁string	-11.2814
▁न्यायिक	-11.2815
uff	-11.2815
▁surrounding	-11.2816
▁स्वरुप	-11.2817
adekhi	-11.2818
hami	-11.2819
▁र्	-11.2819
determination	-11.282
व्यापार	-11.282
▁Buddhist	-11.282
▁Com	-11.282
▁लन्डन	-11.2821
lya	-11.2822
rant	-11.2823
ija	-11.2824
्याक	-11.2825
अनुरुप	-11.2827
▁fundamental	-11.2827
ुहुँदैन	-11.2827
place	-11.2829
▁Inter	-11.2829
▁उठाएको	-11.283
बलि	-11.283
्याउँदै	-11.283
▁seats	-11.2831
ons	-11.2831
▁सां	-11.2832
▁Singapore	-11.2832
विस	-11.2834
▁संग्रहालय	-11.2834
amar	-11.2836
सोही	-11.2838
▁गुठी	-11.2839
rad	-11.2839
ching	-11.284
▁महत्त्व	-11.2841
लाका	-11.2841
▁गरिदिए	-11.2842
▁परामर्शदाता	-11.2842
shram	-11.2843
न्जा	-11.2844
▁proud	-11.2844
▁नया	-11.2845
▁भुटान	-11.2846
▁सिक्न	-11.2846
▁पम्प	-11.2846
>	-11.2848
▁discipline	-11.2848
▁आश्चर्यजनक	-11.2848
▁integrated	-11.285
▁निकायमा	-11.285
▁initiated	-11.2851
चिन	-11.2851
cap	-11.2854
▁धुम्रपान	-11.2854
▁resource	-11.2855
Yahweh	-11.2855
िरह	-11.2857
हामीसँग	-11.2857
▁marks	-11.2857
▁नदेख	-11.2859
shya	-11.2859
▁sort	-11.2862
▁वीरेन्द्र	-11.2863
न्या	-11.2867
▁Business	-11.2867
▁फुक	-11.2867
bazar	-11.2869
▁किलो	-11.2869
lakshmi	-11.2869
अन्तर्राष्ट्रिय	-11.2869
Please	-11.2869
▁2016	-11.2871
wako	-11.2872
▁multiple	-11.2873
▁separated	-11.2873
▁figures	-11.2873
▁cars	-11.2875
्सा	-11.2875
▁eventually	-11.2876
shal	-11.2876
लोन	-11.2877
▁पदार्थको	-11.2877
▁सदस्यको	-11.2879
▁परराष्ट्र	-11.288
▁रुच	-11.2882
▁channel	-11.2882
▁counter	-11.2883
bani	-11.2883
tiya	-11.2885
▁मूर्ख	-11.2885
Whatever	-11.2885
chor	-11.2886
rupi	-11.2887
▁पप	-11.2887
▁बोर्डले	-11.2888
▁सन्त	-11.2888
▁फ्रि	-11.2889
tus	-11.289
▁promoting	-11.289
▁surgery	-11.2891
sawa	-11.2891
▁grass	-11.2892
▁पुगेर	-11.2894
park	-11.2895
▁मोल	-11.2895
▁torture	-11.2897
▁Sea	-11.2898
▁शपथ	-11.2898
▁भेग	-11.2901
like	-11.2901
▁commit	-11.2901
cla	-11.2905
▁पुँजी	-11.2905
वेश	-11.2906
▁खाए	-11.2907
▁मिलाउन	-11.2908
art	-11.2908
▁राख्छन्	-11.2909
aunda	-11.2909
▁grants	-11.2909
उन	-11.2912
▁आव	-11.2913
सेक	-11.2914
bada	-11.2914
▁विभागको	-11.2914
shila	-11.2915
ech	-11.2915
▁हुन्न	-11.2917
Each	-11.2917
ST	-11.2918
▁अपरिहार्य	-11.2918
▁ideal	-11.292
▁Ambassador	-11.292
▁पशुपति	-11.292
▁schedule	-11.2922
▁photos	-11.2922
▁dollar	-11.2924
▁Mandal	-11.2924
▁YORK	-11.2925
▁recognition	-11.2925
yaune	-11.2926
uddha	-11.2926
सीसी	-11.2927
mc	-11.2929
▁When	-11.2931
▁committees	-11.2931
▁alliance	-11.2932
▁सिलसिलामा	-11.2933
ज्जा	-11.2934
kanda	-11.2935
▁निर्माणको	-11.2935
▁एन्	-11.2938
रीका	-11.2939
gadh	-11.2939
▁password	-11.2939
िओ	-11.294
▁involvement	-11.294
य्	-11.2942
्ब	-11.2942
▁Mid	-11.2943
mulya	-11.2945
▁ob	-11.2946
▁thirty	-11.2946
ुरा	-11.2947
त्स	-11.2948
▁su	-11.2948
▁mass	-11.295
▁investigate	-11.295
▁पर्सा	-11.2952
▁स्वदेश	-11.2952
prem	-11.2952
▁जनावर	-11.2953
▁measure	-11.2953
▁अञ्चलको	-11.2953
▁धातु	-11.2954
संघीय	-11.2954
▁Campus	-11.2954
ेटर	-11.2954
▁बायाँ	-11.2955
▁उच्चस्तरीय	-11.2955
लियन	-11.2956
stic	-11.2956
▁बूढा	-11.2958
thal	-11.2959
िउ	-11.2959
▁पावर	-11.296
▁philosophy	-11.296
22	-11.2963
ग्री	-11.2965
यान	-11.2965
सरी	-11.2965
▁Social	-11.2967
▁इङ्गल्यान्ड	-11.2967
▁पारेर	-11.2969
▁ज्याला	-11.297
dwar	-11.297
▁लड्न	-11.297
थ्य	-11.297
sure	-11.2971
ज्ञा	-11.2972
▁detailed	-11.2972
▁aspect	-11.2973
▁समुदायमा	-11.2973
ाउण्ड	-11.2974
jur	-11.2974
▁माइक	-11.2975
haka	-11.2976
▁extreme	-11.2976
▁मनाउने	-11.2977
▁पेट्रोल	-11.2977
शय	-11.2979
▁स्रोतको	-11.2981
▁खतरनाक	-11.2981
▁द्विपक्षीय	-11.2981
▁bullet	-11.2982
fit	-11.2983
सके	-11.2983
▁menu	-11.2983
▁जून	-11.2983
▁ब्रि	-11.2983
wood	-11.2984
▁विज्ञप्तिमा	-11.2985
▁लगाई	-11.2985
loka	-11.2986
मक	-11.2987
▁mu	-11.2988
▁thick	-11.299
bach	-11.2991
▁finish	-11.2991
▁cards	-11.2994
▁विमानस्थलमा	-11.2997
▁नैतिक	-11.2999
▁weekend	-11.2999
बिल	-11.2999
▁केहि	-11.3
त्यसको	-11.3001
umba	-11.3002
▁थप्न	-11.3002
ering	-11.3005
▁काँग्रेस	-11.301
▁हस्त	-11.3011
▁संस्थालाई	-11.3011
▁dangerous	-11.3012
▁प्रमाणीकरण	-11.3013
bhaw	-11.3014
shanti	-11.3015
▁बेहोर	-11.3016
▁जनाएका	-11.3017
anlai	-11.3018
▁यसबाट	-11.3019
ँड	-11.3019
िले	-11.3019
▁अग्लो	-11.3019
▁Los	-11.302
▁purposes	-11.3022
▁ब्रो	-11.3022
ked	-11.3022
नाका	-11.3023
८०	-11.3023
▁कांग्रेसले	-11.3023
▁pension	-11.3024
mble	-11.3025
▁भिड	-11.3026
▁Election	-11.3029
▁विधान	-11.303
▁occur	-11.303
▁अधीनमा	-11.3031
▁शाऊल	-11.3032
सम्बन्धित	-11.3032
▁4.	-11.3033
hind	-11.3034
LA	-11.3035
pare	-11.3035
▁क्ष	-11.3037
hab	-11.3038
suna	-11.3039
▁मिन	-11.3041
▁गुणा	-11.3042
▁घटाउने	-11.3042
▁differences	-11.3044
upcoming	-11.3045
▁tiger	-11.3045
▁fix	-11.3046
rok	-11.3046
▁मरि	-11.3048
▁First	-11.3048
▁केन्द्रको	-11.305
28	-11.3051
▁reasonable	-11.3051
dio	-11.3052
▁ऋषि	-11.3053
▁मौन	-11.3053
▁नसक्दा	-11.3055
▁सेवन	-11.3056
▁ग्रन्थ	-11.3056
▁sixth	-11.3056
▁shops	-11.3057
▁marketing	-11.3058
▁provinces	-11.3061
कवि	-11.3061
▁एमाओवादी	-11.3061
naga	-11.3061
रियल	-11.3062
▁ट्रप	-11.3065
राख	-11.3066
kshi	-11.3066
▁लगाइ	-11.3067
▁taste	-11.3068
▁बखत	-11.3068
बेर	-11.3068
▁succeed	-11.3069
▁बताइन्	-11.307
एफए	-11.307
उन्	-11.307
▁व्यवसायमा	-11.3073
▁प्रशोधन	-11.3074
▁अन्	-11.3076
▁ones	-11.3077
▁rebel	-11.3077
tern	-11.308
मन्ड	-11.308
ED	-11.3081
▁stretch	-11.3081
▁मुनि	-11.3081
ानो	-11.3081
४९	-11.3084
▁Scotland	-11.3086
▁category	-11.3088
▁commencement	-11.3088
▁slogan	-11.3089
table	-11.3089
कानुन	-11.309
▁instance	-11.309
▁४२	-11.309
▁ga	-11.3091
ीकृत	-11.3092
▁बीस	-11.3092
new	-11.3095
▁enemies	-11.3095
▁संघीयता	-11.3095
▁रणनीतिक	-11.3095
tech	-11.3097
▁खासै	-11.3097
....	-11.3098
प्रे	-11.3098
▁बुढा	-11.3099
▁सुरक्षाको	-11.3099
▁केन्द्रका	-11.3099
▁देहायको	-11.31
▁confident	-11.3102
जनता	-11.3103
▁contains	-11.3103
basa	-11.3104
▁उमेरका	-11.3104
▁धुन	-11.3105
▁लाखौं	-11.3105
inu	-11.3109
▁चीज	-11.3109
▁signature	-11.3109
मानिस	-11.311
िदिने	-11.3111
▁काला	-11.3112
▁allocated	-11.3112
▁२०१६	-11.3113
▁अभियानमा	-11.3116
▁सृष्टि	-11.3117
▁राजालाई	-11.3118
▁Seventh	-11.3118
▁losses	-11.3118
▁बालबालिकाको	-11.3119
▁personality	-11.3121
▁finger	-11.3124
▁spring	-11.3124
deu	-11.3127
▁वर्षहरूमा	-11.3128
suk	-11.3128
▁कार्यकाल	-11.3129
▁none	-11.313
▁Parsa	-11.313
▁स्मिथ	-11.3132
फोर	-11.3132
▁What	-11.3133
७०	-11.3133
साल	-11.3134
cate	-11.3135
▁मोडेल	-11.3137
spect	-11.3137
▁पासवर्ड	-11.3138
▁maintaining	-11.3138
eshwari	-11.3141
▁स्वच्छ	-11.3142
water	-11.3143
▁बब	-11.3144
thak	-11.3145
▁स्थगित	-11.3145
▁Kali	-11.3146
देशमा	-11.3146
CA	-11.3146
▁डोमेन	-11.3148
▁आयोगका	-11.3148
▁याद	-11.3149
samaj	-11.3149
▁structures	-11.3149
ics	-11.3149
Click	-11.315
jim	-11.3152
▁घाँटी	-11.3152
▁ज्ञानेन्द्र	-11.3155
▁गर्छौ	-11.3155
▁blame	-11.3157
यन्त्र	-11.3157
▁एन्टि	-11.3158
▁click	-11.316
▁distribute	-11.3162
ेरै	-11.3162
▁बताउ	-11.3162
▁चीनले	-11.3163
इन्ड	-11.3164
▁mostly	-11.3164
chap	-11.3165
arka	-11.3165
harumathi	-11.3166
▁जै	-11.3166
▁sheep	-11.3166
ंगी	-11.3167
सँगसँगै	-11.3167
▁x	-11.3168
ग्रह	-11.3169
▁resolve	-11.3171
▁completing	-11.3174
▁तस्करी	-11.3174
▁peak	-11.3175
▁विश्वविद्यालयका	-11.3176
▁roll	-11.3176
▁परेमा	-11.3178
basti	-11.3181
▁चोक	-11.3181
▁चाप	-11.3182
▁झुण्ड	-11.3185
▁हिंडे	-11.3186
erai	-11.3187
▁पाउ	-11.3187
▁mention	-11.3189
▁Kingdom	-11.3189
▁उस्तै	-11.3189
President	-11.3191
उपर	-11.3191
गाउँमा	-11.3191
jun	-11.3194
▁निकायहरू	-11.3196
▁allegations	-11.3197
ेन्ड	-11.3197
ङको	-11.3198
अन्तिम	-11.3199
जसरी	-11.3199
रक	-11.3202
▁पेन्ट	-11.321
▁fraud	-11.321
स्की	-11.3214
▁Tha	-11.3215
▁marry	-11.3217
▁Conference	-11.3217
पोखरा	-11.3219
▁नामकरण	-11.322
cul	-11.3221
Mar	-11.3222
▁पन्त	-11.3222
राह	-11.3223
संसद	-11.3224
▁गोर्खा	-11.3226
▁sha	-11.3227
्जि	-11.3228
dent	-11.3229
▁argue	-11.3229
clock	-11.323
▁निर	-11.323
pho	-11.323
▁समारोह	-11.323
▁क्रान्तिकारी	-11.323
चुर	-11.3231
पालन	-11.3231
▁स्मार्ट	-11.3231
▁परेन	-11.3232
▁highly	-11.3233
▁flee	-11.3234
नोम	-11.3237
एक्स	-11.3237
gel	-11.3238
▁contest	-11.3239
jaga	-11.324
▁talked	-11.324
गेट	-11.3241
▁संग्रह	-11.3241
▁कुखुरा	-11.3243
▁माने	-11.3243
▁वेबसाइट	-11.3243
▁Special	-11.3243
jang	-11.3244
▁dress	-11.3244
▁वर्	-11.3244
▁परिषद्ले	-11.3245
▁स्वर्गदूत	-11.3246
▁पाइलट	-11.3248
ठूला	-11.3249
▁","&	-11.3249
▁suggest	-11.3251
▁बौद्धिक	-11.3252
▁अभिवृद्धि	-11.3254
▁rape	-11.3254
▁बुझ्ने	-11.3256
▁प्रवक्ताले	-11.3256
▁wise	-11.3257
येशूले	-11.3258
ude	-11.3258
विज्ञान	-11.3259
Ram	-11.3262
inda	-11.3262
bhae	-11.3262
sign	-11.3263
45	-11.3263
▁Report	-11.3266
▁commander	-11.3267
िदियो	-11.3267
pramukh	-11.3268
▁census	-11.3268
press	-11.3269
vy	-11.327
▁भएकी	-11.3272
▁थपे	-11.3272
madhyeko	-11.3273
prayog	-11.3275
▁thus	-11.3276
▁जोडी	-11.3281
▁समाजका	-11.3282
▁राज्यपाल	-11.3283
▁झगडा	-11.3283
क्यु	-11.3283
bank	-11.3284
▁बन्दी	-11.3284
साहित्य	-11.3285
▁दुर्गा	-11.3285
▁बापत	-11.3286
▁बसाइँ	-11.329
jai	-11.3292
स्या	-11.3292
ae	-11.3296
▁पन्ध्र	-11.3296
ायल	-11.3296
▁intervention	-11.3297
▁Baburam	-11.3298
bru	-11.3299
tata	-11.3301
▁lies	-11.3303
Add	-11.3303
hali	-11.3303
स्वा	-11.3304
power	-11.3307
ain	-11.3308
▁bio	-11.3308
kalai	-11.3309
▁जाँदै	-11.3309
chen	-11.3311
▁invited	-11.3311
साग	-11.3311
Act	-11.3312
▁stomach	-11.3312
▁रेग्मी	-11.3312
▁nurse	-11.3312
औ	-11.3314
2007	-11.3315
▁flights	-11.3315
▁असार	-11.3317
quir	-11.3319
nn	-11.3321
्चे	-11.3322
▁जीव	-11.3322
atmak	-11.3323
▁रहेछन्	-11.3324
▁complained	-11.3325
yantra	-11.3326
▁जुलुस	-11.3327
SE	-11.3331
▁floods	-11.3333
▁narrow	-11.3334
box	-11.3334
▁सदस्यहरूले	-11.3335
name	-11.3335
tom	-11.3338
नुपर्ने	-11.3339
▁intelligence	-11.3341
lash	-11.3342
nepali	-11.3345
▁किसिमले	-11.3345
▁निजलाई	-11.3347
▁लघु	-11.3347
PRNewire	-11.3348
▁देशले	-11.3351
गार	-11.3351
।’	-11.3352
▁contractor	-11.3352
▁बिज	-11.3352
ङ्ख	-11.3353
▁Republic	-11.3353
▁मन्त्रालयमा	-11.3356
▁Birendra	-11.3357
▁System	-11.3357
▁अचानक	-11.3358
▁ल्याइ	-11.3359
कर्मचारी	-11.3359
▁हिउँ	-11.336
▁formula	-11.3362
▁शोक	-11.3362
▁स्टार	-11.3362
part	-11.3363
्खा	-11.3364
▁Rural	-11.3364
▁तातो	-11.3364
shed	-11.3365
mount	-11.3366
▁punished	-11.3368
▁विश्वमा	-11.337
▁reducing	-11.337
mma	-11.337
▁अधिलेखन	-11.337
sham	-11.3372
pradesh	-11.3372
्टो	-11.3373
▁entrepreneur	-11.3373
▁Son	-11.338
▁belief	-11.3381
▁sight	-11.3381
darshan	-11.3382
77	-11.3383
नेकपा	-11.3383
थान	-11.3384
og	-11.3385
▁जलस्रोत	-11.3386
▁engine	-11.3387
▁ग्रह	-11.3387
bok	-11.339
▁तल्ला	-11.3392
▁जेट	-11.3392
▁graduate	-11.3392
▁pride	-11.3393
▁चालु	-11.3393
▁झरेको	-11.3393
▁सम्पत्तिको	-11.3394
▁addressed	-11.3395
शुक्रबार	-11.3395
▁अन्यथा	-11.3396
रोन	-11.3397
▁causes	-11.3398
▁dialog	-11.34
▁ch	-11.3402
▁procession	-11.3402
gana	-11.3402
औं	-11.3403
सिर	-11.3403
▁रोगको	-11.3404
kim	-11.3404
वाइ	-11.3405
▁Ed	-11.3407
▁tackle	-11.3407
▁Democrats	-11.3407
nayak	-11.3408
▁cry	-11.3408
▁उठाए	-11.3409
▁fled	-11.341
क्लि	-11.341
▁helping	-11.3411
▁Article	-11.3411
▁प्रतिष्ठा	-11.3413
▁हातहतियार	-11.3415
▁Star	-11.3418
Date	-11.3419
रिज	-11.342
▁पट	-11.3421
▁रहेर	-11.3424
▁कोइरालाले	-11.3425
▁गोरखा	-11.3425
▁उसका	-11.3426
ान्	-11.3426
▁grand	-11.3426
Ru	-11.3426
shra	-11.3426
▁शक्तिहरू	-11.3428
▁विश्वविद्यालयको	-11.343
ोभ	-11.343
▁आँ	-11.3431
▁नख	-11.3431
▁कहिलेकाहीं	-11.3433
▁आमाको	-11.3436
ेनन्	-11.3437
▁hotels	-11.3438
▁Thousand	-11.3439
▁महीना	-11.3439
▁फर्के	-11.344
udh	-11.3441
▁stayed	-11.3441
▁अधिकारीको	-11.3442
▁बिन	-11.3442
yai	-11.3443
▁उत्पादित	-11.3444
▁नामाकरण	-11.3444
▁झन	-11.3445
ank	-11.3446
▁Region	-11.3447
ठूलो	-11.3447
▁डाँडा	-11.3448
bareko	-11.3448
▁नदिन	-11.3448
67	-11.3449
month	-11.3449
▁घरबाट	-11.3449
डको	-11.345
▁वैध	-11.3451
pradhan	-11.3451
dako	-11.3452
khya	-11.3453
िन्स	-11.3454
रेको	-11.3455
ोला	-11.3457
lgayatle	-11.3459
▁भुल	-11.3459
▁मूल्यांकन	-11.3459
षक	-11.346
▁sheet	-11.3462
▁Ali	-11.3463
▁चल्न	-11.3463
hood	-11.3465
say	-11.3465
ade	-11.3466
नेपालका	-11.3466
▁principal	-11.3466
▁petition	-11.3466
ओस्	-11.3466
व्यवस्था	-11.3471
mitra	-11.3472
उता	-11.3472
pos	-11.3473
बहु	-11.3473
अरू	-11.3474
▁महंगो	-11.3474
▁railway	-11.3475
▁Butwal	-11.3475
▁थुन	-11.3476
▁Ramesh	-11.3476
▁नआए	-11.3476
सार्वजनिक	-11.3477
rod	-11.3479
▁ear	-11.3479
शाली	-11.3479
दर्शन	-11.348
▁शहरका	-11.3481
▁निर्दोष	-11.3481
▁आठौं	-11.3481
▁सुलेमान	-11.3482
हले	-11.3483
▁समर्थक	-11.3483
▁पुर्याएको	-11.3484
▁matches	-11.3484
खासगरी	-11.3485
▁पौ	-11.3487
▁piece	-11.3488
▁Mac	-11.3488
▁specify	-11.3489
▁हिंसात्मक	-11.349
्रु	-11.3491
▁आतंक	-11.3492
▁धा	-11.3493
chhod	-11.3494
▁escape	-11.3494
gada	-11.3494
▁अन्तरिम	-11.3499
▁ढाक	-11.3499
▁अभिप्राय	-11.35
क्षी	-11.3501
्की	-11.3501
३५	-11.3501
wesh	-11.3501
▁अल्प	-11.3501
▁भट्टराईले	-11.3502
▁jurisdiction	-11.3503
AT	-11.3504
nuko	-11.3504
▁पुतली	-11.3505
isi	-11.3506
▁फलाम	-11.3507
▁सिजन	-11.3508
▁अङ्ग्रेजी	-11.3509
▁ओबामा	-11.3509
िसके	-11.351
nah	-11.3513
kosh	-11.3513
▁हुँदैछ	-11.3514
▁पिउने	-11.3514
मगर	-11.3516
▁गोल्ड	-11.3516
िदा	-11.3517
न्याय	-11.3517
▁falls	-11.3518
ावली	-11.3518
्ति	-11.3519
स्टार	-11.352
▁जेम्स	-11.3521
▁प्रतिक्षा	-11.3521
night	-11.3522
विध	-11.3523
tana	-11.3523
ाबाट	-11.3524
▁सोच्न	-11.3525
▁PRNewswire	-11.3526
हरूद्वारा	-11.3528
▁विश्वकप	-11.3529
▁hide	-11.3529
▁tied	-11.3529
▁Sir	-11.353
▁कार्यक्रमहरू	-11.3531
बादी	-11.3533
▁misconduct	-11.3533
tract	-11.3533
▁महिनाभित्र	-11.3534
▁island	-11.3534
▁Planning	-11.3536
dain	-11.3536
."	-11.3539
lop	-11.354
ori	-11.3542
hru	-11.3543
नायक	-11.3544
▁failing	-11.3545
▁arm	-11.3546
ाइदिने	-11.3546
ound	-11.3547
mut	-11.3547
tip	-11.3548
warna	-11.3548
▁टोलीको	-11.3548
▁डाइ	-11.3548
▁न्यौपाने	-11.3548
▁risks	-11.355
▁बन्देज	-11.3551
प्रकार	-11.3551
▁लाइसेन्स	-11.3552
धेरैजसो	-11.3552
▁फाँट	-11.3555
hos	-11.3555
▁savings	-11.3556
▁rally	-11.3557
▁झोला	-11.3558
puri	-11.3559
▁कोषमा	-11.3559
राई	-11.3559
▁वास्तवमै	-11.3561
▁observe	-11.3561
।","	-11.3563
Perhaps	-11.3563
▁delivery	-11.3563
लगायतमा	-11.3564
▁Highway	-11.3564
ghum	-11.3564
▁स्वतः	-11.3566
▁promise	-11.3566
27	-11.3568
CC	-11.3568
▁डिस्क	-11.3568
नन्द	-11.3569
कर्ताहरूले	-11.3569
निजी	-11.357
▁बस्नेत	-11.357
▁मामिला	-11.3571
▁उड्डयन	-11.3571
▁Nov	-11.3572
▁quick	-11.3573
▁युद्धको	-11.3574
आफ्ना	-11.3575
बीसी	-11.3575
▁solutions	-11.3575
▁ऐनमा	-11.3578
▁chain	-11.358
सेर	-11.358
▁लाइनमा	-11.3584
▁पार्	-11.3584
▁खेलाडीहरू	-11.3585
▁अप्ठ्यारो	-11.3586
▁पक्षलाई	-11.3586
▁2018	-11.3588
▁सिमेन्ट	-11.3588
chhap	-11.3589
▁वैद्य	-11.359
जेट	-11.359
मिला	-11.3591
▁poem	-11.3592
▁कार्यान्वयनमा	-11.3593
Sometimes	-11.3593
▁मन्दिरको	-11.3593
जीलाई	-11.3595
▁Bh	-11.3597
wyawastha	-11.3597
▁विक	-11.3599
▁गरेन	-11.3599
26	-11.3599
▁noise	-11.36
▁ठगी	-11.36
▁अभिनेता	-11.3601
▁customary	-11.3601
gt	-11.3602
▁सर्वदा	-11.3603
▁ग्राम	-11.3603
▁जिम	-11.3605
▁argument	-11.3606
मिट	-11.3607
▁स्तरीय	-11.3607
▁Ash	-11.3607
▁रोजे	-11.3607
▁कन	-11.3608
▁shadow	-11.3608
▁सुनुवाइ	-11.3608
▁desert	-11.3608
▁item	-11.361
▁परिवर्तनको	-11.361
दम	-11.361
▁publishing	-11.3612
▁Tan	-11.3612
▁दिनपछि	-11.3614
िस्	-11.3615
▁33	-11.3615
▁खोजिरहेको	-11.3619
लक्ष्मी	-11.3619
▁delivered	-11.3619
ates	-11.362
▁Christian	-11.362
▁Par	-11.3621
▁hills	-11.3622
रत्न	-11.3622
▁दिनेछु	-11.3623
▁testing	-11.3623
▁सुनको	-11.3626
▁comments	-11.3627
▁क्षेत्रहरू	-11.3629
▁वर्षभित्र	-11.3629
शिया	-11.363
▁retirement	-11.3631
idin	-11.3633
member	-11.3633
▁यूसुफ	-11.3634
▁राम्रा	-11.3634
भाष	-11.3637
▁किम	-11.3637
जात	-11.3638
▁establishing	-11.3638
▁advocate	-11.3638
kut	-11.364
▁supporting	-11.3643
▁विषयलाई	-11.3643
santa	-11.3644
ill	-11.3644
▁laid	-11.3646
▁episode	-11.3646
ej	-11.3648
▁argued	-11.3649
▁stones	-11.3649
▁Sar	-11.3651
▁लेखापरीक्षण	-11.3654
▁mine	-11.3655
▁require	-11.3656
▁२००२	-11.3659
200	-11.3659
▁extension	-11.3661
▁pair	-11.3664
▁faces	-11.3665
द्धि	-11.3666
making	-11.3667
▁2002	-11.3667
द्घ	-11.3669
▁रुपले	-11.367
विभाग	-11.367
RC	-11.3671
▁label	-11.3671
▁मानिसहरूका	-11.3671
▁Jacob	-11.3671
mandal	-11.3673
▁donor	-11.3674
खाल	-11.3675
मान्छे	-11.3676
▁sentence	-11.3676
▁substance	-11.3676
▁ढो	-11.3679
▁मोरङ	-11.3679
Along	-11.368
व्र	-11.368
ajasto	-11.368
klai	-11.3681
▁Program	-11.3681
▁उन	-11.3682
▁छाडेर	-11.3683
गीत	-11.3685
▁capable	-11.3685
▁प्लेट	-11.3685
laka	-11.3687
▁धर	-11.3688
अदालत	-11.3688
kriti	-11.3689
iri	-11.369
▁सल्	-11.369
▁Obama	-11.3692
▁managing	-11.3692
▁hopes	-11.3693
▁ठाकुर	-11.3694
▁strongly	-11.3694
vish	-11.3695
▁नब	-11.3697
banda	-11.3697
▁भाग्य	-11.3698
खोलामा	-11.3701
▁helps	-11.3704
टिस	-11.3704
tuk	-11.3705
ties	-11.3705
dekha	-11.3706
▁ordinary	-11.3706
▁ज्या	-11.3707
▁secondary	-11.3708
fra	-11.3709
रेखा	-11.3709
▁Gulf	-11.3714
PS	-11.3715
▁सोचाइ	-11.3715
▁households	-11.3719
▁पेरिस	-11.3719
▁पुलिस	-11.372
वाई	-11.3722
▁प्लास्टिक	-11.3725
आन्दोलन	-11.3725
▁घेरा	-11.3727
▁declined	-11.3727
▁बिहे	-11.3729
▁प्रस्तुति	-11.3729
▁clash	-11.373
pali	-11.3731
▁constantly	-11.3733
▁newspapers	-11.3733
आगामी	-11.3735
▁ट्या	-11.3736
एफसी	-11.3736
chara	-11.3736
रोयटर्स	-11.3737
▁reputation	-11.3737
▁Italy	-11.3737
nata	-11.3738
▁consultation	-11.3739
▁Bhutan	-11.374
चलचित्र	-11.3742
graha	-11.3742
▁विल	-11.3743
▁premises	-11.3744
ीकरणको	-11.3745
▁ruled	-11.3745
akh	-11.3746
मिति	-11.3747
▁Services	-11.3748
▁owned	-11.3748
ाइनेछ	-11.3751
aja	-11.3751
▁सै	-11.3751
ल्म	-11.3752
▁medicine	-11.3752
▁reign	-11.3752
डक	-11.3753
▁judges	-11.3754
▁लगायो	-11.3757
▁secure	-11.3758
▁समेट	-11.3759
▁herself	-11.3761
▁स्ट्रिङ	-11.3761
bus	-11.3764
▁snow	-11.3764
stu	-11.3765
टोन	-11.3765
▁सास	-11.3768
shala	-11.3768
▁hole	-11.3769
asthit	-11.377
▁Gen	-11.377
्याई	-11.3772
fat	-11.3773
thok	-11.3774
▁regularly	-11.3775
▁जोड्ने	-11.3776
▁साथमा	-11.3777
aeko	-11.3782
▁लगानीको	-11.3784
पुग	-11.3784
▁Bara	-11.3786
▁collective	-11.3786
yle	-11.3786
आइतबार	-11.3788
purma	-11.3789
▁अनुभूति	-11.379
▁लागेर	-11.3793
श्वर	-11.3794
▁investigating	-11.3798
▁बाख्रा	-11.3799
▁पारिएको	-11.38
kriya	-11.3801
duct	-11.3801
पिन	-11.3801
▁Musharraf	-11.3801
वाली	-11.3801
app	-11.3803
dau	-11.3803
▁Syria	-11.3803
नगरपालिका	-11.3804
▁prospect	-11.3806
▁saving	-11.3806
70	-11.3807
▁kingdom	-11.3808
▁scattered	-11.3808
▁दाहालले	-11.3808
shiv	-11.3808
परिषद्	-11.3808
▁ढि	-11.3808
▁त्रास	-11.3809
▁hectares	-11.3811
▁घाउ	-11.3811
▁रुख	-11.3812
lines	-11.3814
बाङ	-11.3817
▁younger	-11.3818
RO	-11.3818
बारेको	-11.3819
jama	-11.3824
▁परी	-11.3824
▁Team	-11.3824
हेल	-11.3825
▁presentation	-11.3826
प्रजातन्त्र	-11.3827
▁guard	-11.3827
mle	-11.3831
▁Turkey	-11.3832
hem	-11.3833
▁gods	-11.3833
यि	-11.3834
▁(1	-11.3835
▁भोज	-11.3835
▁crying	-11.3835
अझ	-11.3835
▁उल्टो	-11.3836
▁सिनेट	-11.3837
▁गर्यौ	-11.3838
शरण	-11.384
▁ब्यान्ड	-11.3841
▁बुँदा	-11.3846
▁कोइला	-11.385
बजारमा	-11.3851
निङ	-11.3852
▁Beijing	-11.3852
▁गर्भपतन	-11.3852
▁सभाको	-11.3852
▁operator	-11.3852
▁साहित्यकार	-11.3853
▁नरेन्द्र	-11.3853
premi	-11.3854
▁मृत्युको	-11.3854
अर्	-11.3855
▁गइ	-11.3855
▁डाइरेक्टरी	-11.3855
▁श्रमिक	-11.3858
▁organizer	-11.3859
▁confused	-11.386
indi	-11.3861
▁शब्दहरू	-11.3863
▁प्रसार	-11.3865
▁महिमा	-11.3865
डमा	-11.3865
▁कूटनीतिक	-11.3865
▁झुक	-11.3866
▁महतो	-11.3866
sarwa	-11.3867
▁तीनवटा	-11.3868
▁invested	-11.3869
▁कोड	-11.387
निज	-11.3871
▁पिक	-11.3871
desha	-11.3873
▁घा	-11.3873
सिना	-11.3874
▁चेलाहरू	-11.3875
▁stars	-11.3878
▁ल्याएर	-11.3879
▁$5	-11.388
▁मकै	-11.388
idine	-11.3881
निर्	-11.3882
nap	-11.3882
▁छेउ	-11.3883
▁सावधानी	-11.3887
▁सोको	-11.3887
▁शव	-11.3887
कार्यालय	-11.3887
bla	-11.3888
66	-11.3889
▁खोप	-11.3889
▁arrival	-11.389
▁औचित्य	-11.389
▁भ्रष्ट	-11.3891
▁नेपालीहरू	-11.3892
SC	-11.3894
▁अड	-11.3894
▁नुन	-11.3896
▁स्वदेशी	-11.3896
ट्रा	-11.3896
बाह	-11.3898
▁1990	-11.39
▁स्टोर	-11.3903
वादीहरू	-11.3904
▁sp	-11.3904
सर्ग	-11.3904
▁माधव	-11.3904
Kha	-11.3905
▁transmission	-11.3906
▁हाइलाइट	-11.3906
▁Science	-11.3907
▁Smith	-11.3909
kaya	-11.3909
▁जनाए	-11.3911
▁लोभ	-11.3911
▁प्रधानमन्त्रीको	-11.3911
पुरका	-11.3913
▁welfare	-11.3914
भिन	-11.3914
▁imports	-11.3914
▁Trust	-11.3914
hako	-11.3915
▁त्यसबेला	-11.3917
CO	-11.3918
nadi	-11.3919
▁VDCs	-11.3921
▁सेकेन्ड	-11.3922
bet	-11.3924
▁ढा	-11.3926
▁कूल	-11.3926
bah	-11.3927
Come	-11.393
▁२०००	-11.393
saman	-11.3931
▁प्रे	-11.3937
▁चिन्तन	-11.3937
भेन	-11.3937
▁झूटो	-11.3937
▁expectations	-11.3937
▁loud	-11.3939
bau	-11.3939
▁अनियमित	-11.394
▁reporters	-11.3941
ric	-11.3941
▁ग्यारेन्टी	-11.3945
▁neck	-11.3945
▁घण्टी	-11.3947
▁पाउनेछ	-11.3952
▁ऋणपत्र	-11.3952
Indian	-11.3953
neta	-11.3954
▁affairs	-11.3955
▁pit	-11.3955
▁plot	-11.3956
▁sharp	-11.3957
▁wound	-11.3957
हाउस	-11.3957
Ni	-11.3958
▁नहुन	-11.3959
▁Arabia	-11.3959
▁अपिल	-11.396
tarka	-11.396
▁toilet	-11.3963
न्टो	-11.3964
▁लाज	-11.3964
▁विज्ञ	-11.3965
▁फ्र	-11.3965
Schedule	-11.3967
▁घटनाको	-11.3967
▁निमन्त्रणा	-11.3968
▁sum	-11.3968
काजी	-11.3969
▁rival	-11.397
▁बयान	-11.397
साई	-11.397
▁भनें	-11.3971
▁पोषण	-11.3971
▁सार्क	-11.3972
▁कफी	-11.3972
तारा	-11.3973
▁अत्यावश्यक	-11.3973
▁गुल	-11.3974
▁telling	-11.3975
▁remuneration	-11.3976
▁निवारण	-11.3976
fri	-11.3977
▁पावल	-11.3977
▁recover	-11.3977
▁भद्र	-11.3977
▁अनुपात	-11.3978
पत्रमा	-11.3978
▁बिच	-11.3979
▁Prince	-11.398
▁targeted	-11.3982
83	-11.3983
▁Jordan	-11.3984
▁विचलित	-11.3984
▁output	-11.3984
▁एलि	-11.3985
mohan	-11.3985
▁छिर	-11.3986
▁पार्टीमा	-11.3987
mand	-11.3987
तिमीले	-11.3988
▁जानेछ	-11.3988
try	-11.3989
▁वनस्पति	-11.3991
▁नदीमा	-11.3991
▁सक्नुहुन्न	-11.3992
▁ब्याज	-11.3992
▁seminar	-11.3992
▁seed	-11.3993
▁वृ	-11.3994
▁solar	-11.3995
▁Aryal	-11.3996
ेयर	-11.3997
▁Judge	-11.3998
▁facilitate	-11.3999
▁निर्णायक	-11.3999
jak	-11.3999
lab	-11.4
▁चरम	-11.4
ID	-11.4
▁४४	-11.4001
▁Ste	-11.4002
idie	-11.4003
र्सन	-11.4003
▁throw	-11.4004
▁डेल	-11.4005
hop	-11.4005
▁slightly	-11.4007
▁angel	-11.4009
▁1959,	-11.4012
निर्माता	-11.4014
▁obey	-11.4015
▁older	-11.4016
▁fat	-11.4016
▁email	-11.4017
ष्ण	-11.4017
▁आइरहेको	-11.4017
िँदैन	-11.4017
▁अडान	-11.4019
▁कान्तिपुर	-11.402
▁Ten	-11.402
▁गरिनु	-11.402
▁Dis	-11.4022
३९	-11.4024
वासीले	-11.4025
स्ट्रि	-11.4025
▁fathers	-11.4026
▁सिटी	-11.4028
▁अर्थमन्त्री	-11.4029
चाल	-11.4029
▁harm	-11.403
▁boost	-11.4031
▁examine	-11.4031
▁Shakya	-11.4031
▁सक्थे	-11.4032
▁hero	-11.4032
olai	-11.4033
▁deadline	-11.4035
सर्	-11.4036
▁tent	-11.4037
chet	-11.4038
daya	-11.4038
▁breast	-11.4039
▁conclusion	-11.4039
lain	-11.404
▁तीस	-11.4041
▁notes	-11.4043
▁बारा	-11.4044
▁निकाले	-11.4045
siko	-11.4045
......	-11.4045
▁चाहिं	-11.4046
▁सङ्घ	-11.4046
nubhaeko	-11.4047
▁ticket	-11.4049
मध्येका	-11.4049
▁widely	-11.4049
▁चल्छ	-11.4051
▁लाम	-11.4051
▁विभाजित	-11.4054
▁पछ्य	-11.4055
र्या	-11.4056
▁truck	-11.4057
▁blocked	-11.4058
▁ring	-11.4058
ाचार्य	-11.4059
▁झ्याल	-11.4061
▁अचम्म	-11.4062
Failed	-11.4062
▁सौर्य	-11.4063
▁भिज	-11.4063
rahi	-11.4064
▁ल्याउँछ	-11.4065
▁प्यारा	-11.4066
Ti	-11.4067
▁","5	-11.4067
iro	-11.4069
प्रजातान्त्रिक	-11.4069
यात्री	-11.407
▁Google	-11.407
▁adverse	-11.407
Bha	-11.407
ोङ	-11.4071
▁पाउँछन्	-11.4072
bandha	-11.4078
▁Labor	-11.408
लिका	-11.4082
डब्ल्यू	-11.4083
tyasa	-11.4085
*	-11.4085
▁Gyawali	-11.4086
▁adequate	-11.4086
pose	-11.4086
▁largely	-11.4088
▁अस्थिरता	-11.4089
mination	-11.4089
म्याक	-11.409
raksha	-11.409
wide	-11.409
▁सङ्कट	-11.409
dung	-11.409
पार्ट	-11.4092
मन्दिर	-11.4093
बिहीबार	-11.4093
ियाका	-11.4094
▁church	-11.4094
▁उपाध्याय	-11.4094
निका	-11.4094
ghe	-11.4094
▁४१	-11.4095
बिया	-11.4098
charan	-11.4098
▁नगरिएको	-11.4098
all	-11.4098
▁toll	-11.41
▁Premier	-11.4102
mang	-11.4102
afa	-11.4102
जन्म	-11.4103
▁finding	-11.4104
▁pm	-11.4105
आउट	-11.4106
▁दह	-11.4106
▁1,000	-11.4107
▁tie	-11.4108
▁देखायो	-11.4108
-5	-11.4109
▁deprived	-11.4109
▁प्रौढ	-11.4109
py	-11.411
करिब	-11.411
▁recorded	-11.4111
tabata	-11.4112
▁exam	-11.4112
▁Ser	-11.4112
▁Revenue	-11.4113
▁कुना	-11.4114
स्ट्र	-11.4116
▁bowl	-11.4117
▁improving	-11.4117
▁कर्मचारीहरु	-11.4117
sus	-11.412
भेद	-11.4121
▁एण्ड	-11.4126
▁स्वर्ण	-11.4126
▁burning	-11.4128
▁Bur	-11.4128
▁नभएमा	-11.413
▁गल्फ	-11.4131
▁scholarship	-11.4133
chil	-11.4134
▁प्रवद्र्धन	-11.4134
▁गल	-11.4134
▁बैंकिङ	-11.4135
▁त्यसबाट	-11.4136
pass	-11.4136
tun	-11.4136
ith	-11.4137
ौरा	-11.4137
▁adopt	-11.4137
phan	-11.4139
aring	-11.414
jhai	-11.4141
▁independence	-11.4141
▁चीजहरू	-11.4141
हिर	-11.4143
▁काव्य	-11.4146
ीहरूको	-11.4146
▁कन्फिगर	-11.4149
prawa	-11.4149
▁पदक	-11.415
स्तरको	-11.415
nach	-11.4152
charge	-11.4152
palika	-11.4156
▁आशीर्वाद	-11.4157
▁एजेन्डा	-11.4157
शमशेर	-11.4157
▁cents	-11.4157
pidit	-11.4157
madhe	-11.4159
▁negotiations	-11.4162
▁displayed	-11.4162
▁articles	-11.4163
पाकिस्तान	-11.4165
▁Investment	-11.4165
▁imprisonment	-11.4165
▁कांग्रेसको	-11.4166
पुरी	-11.4168
▁fe	-11.4169
कसैले	-11.4169
साधारण	-11.417
▁Airlines	-11.4173
phone	-11.4174
ew	-11.4176
parti	-11.4176
▁handle	-11.4176
▁बेच्न	-11.4176
▁दूत	-11.4178
सुकै	-11.4178
कप	-11.4178
▁इटाली	-11.418
सञ्चार	-11.4181
▁फर्किने	-11.4181
▁Apple	-11.4181
▁अन्तरवार्ता	-11.4181
74	-11.4181
▁ढकाल	-11.4182
हरूप्रति	-11.4182
कारण	-11.4183
panch	-11.4183
▁फ्लोरिडा	-11.4185
khas	-11.4186
▁contribute	-11.4187
▁भूमिगत	-11.4188
▁Pvt	-11.4189
▁प्लेटफर्म	-11.4189
▁महाराज	-11.4189
क्रिया	-11.4189
न्छन्	-11.419
▁हालैका	-11.419
▁परिवेश	-11.419
ङमा	-11.419
▁moral	-11.4192
पर्दा	-11.4192
छवि	-11.4192
cra	-11.4194
▁salt	-11.4194
▁जोन्स	-11.4195
दायी	-11.4196
▁Regional	-11.4196
▁reliable	-11.4197
▁मतलब	-11.4197
gaj	-11.4199
maitri	-11.42
▁दर्	-11.4201
▁Pant	-11.4202
▁अध्ययनले	-11.4203
▁engaged	-11.4203
▁पाएपछि	-11.4203
्टन	-11.4203
▁Dashain	-11.4204
▁Pashupati	-11.4204
▁भदौ	-11.4205
-6	-11.4206
▁efficient	-11.4207
Si	-11.4209
▁बाजा	-11.421
▁बढाएको	-11.4211
▁colleges	-11.4211
▁Control	-11.4212
▁deceased	-11.4213
▁देखाउनु	-11.4214
▁From	-11.4215
▁४३	-11.4215
▁अनन्त	-11.4216
ying	-11.4218
bes	-11.4219
mik	-11.4219
uck	-11.4221
▁हारून	-11.4221
मानिसहरू	-11.4221
jilla	-11.4221
पुरा	-11.4222
३८	-11.4222
▁दब	-11.4223
▁effectively	-11.4224
▁bin	-11.4224
फर्म	-11.4224
▁advertisement	-11.4224
deep	-11.4225
asamet	-11.4225
▁नाता	-11.4225
shwa	-11.4226
▁सकिएको	-11.4226
▁eaten	-11.4229
▁Shamsher	-11.4229
▁डिस्	-11.4229
▁visa	-11.4235
▁Shahi	-11.4236
बस्ती	-11.4236
▁भइसकेका	-11.4237
▁forms	-11.4237
▁martyr	-11.4237
▁plenty	-11.4237
▁vacant	-11.4237
▁व्यायाम	-11.4237
▁उद्योगको	-11.4238
▁निराश	-11.424
▁तीर्थ	-11.4242
▁गराएका	-11.4243
ब्ब	-11.4243
▁burned	-11.4244
लिप	-11.4246
▁जीवनशैली	-11.4246
▁नाघ	-11.4246
▁विद्यार्थीहरू	-11.4247
उँ	-11.4248
वर्	-11.425
▁गै	-11.425
▁पेट्रोलियम	-11.4253
▁auction	-11.4253
▁commanded	-11.4253
▁हद	-11.4254
awiruddha	-11.4256
▁आयोजनाहरु	-11.4256
ilo	-11.4258
kranti	-11.4259
71	-11.426
▁worry	-11.4261
▁बन्दरगाह	-11.4261
▁पच	-11.4261
Parliament	-11.4261
▁सिग	-11.4265
waha	-11.4265
▁स्केल	-11.4267
saya	-11.4268
rle	-11.4268
rupa	-11.4268
▁Myanmar	-11.4269
▁calendar	-11.4269
▁न्यानो	-11.427
▁Good	-11.427
Raj	-11.4272
▁suggestions	-11.4272
▁traveling	-11.4278
ीसँग	-11.4278
▁स्वभाव	-11.4279
ष्म	-11.4279
86	-11.4283
▁नगरपालिकाको	-11.4283
▁ध्रुव	-11.4284
▁allowing	-11.4284
विवाह	-11.4285
▁buried	-11.4285
▁मर्यादा	-11.4285
▁प्राप्ति	-11.4288
alle	-11.4289
▁passing	-11.4293
ekaharu	-11.4294
▁actual	-11.4296
koshi	-11.4298
▁earning	-11.4299
▁गंगा	-11.4299
ंड	-11.43
▁pray	-11.4301
▁pattern	-11.4301
▁clothing	-11.4301
▁भेदभाव	-11.4302
ically	-11.4302
▁इलाम	-11.4304
▁Real	-11.4305
तह	-11.4305
▁discovered	-11.4305
३२	-11.4308
tum	-11.4308
विश्वास	-11.4309
▁लिलाम	-11.4309
कान्त	-11.431
kor	-11.431
शैली	-11.4313
▁पाँचौ	-11.4313
परमेश्वर	-11.4314
▁दोहोरो	-11.4314
▁Regmi	-11.4317
plu	-11.4318
▁entertainment	-11.4318
याह	-11.4318
▁क्रिस	-11.4318
एमएस	-11.4318
▁निल	-11.4319
ल्प	-11.432
▁kings	-11.432
▁४००	-11.432
नान	-11.432
sankhya	-11.4321
▁मेरी	-11.4322
rich	-11.4323
यसबाहेक	-11.4323
▁बुटवल	-11.4325
Political	-11.4325
▁offense	-11.4325
▁दिशामा	-11.4326
▁somewhere	-11.4328
देन	-11.4329
▁retired	-11.4329
▁factory	-11.433
▁खालको	-11.4331
सनले	-11.4332
▁fifty	-11.4333
▁timely	-11.4334
05	-11.4334
▁प्लगइन	-11.4335
▁सिनेटर	-11.4335
Check	-11.4335
▁ट्रेल	-11.4336
horn	-11.4336
▁सम्भार	-11.4336
▁pull	-11.4337
phy	-11.4337
४२	-11.4339
▁पोलि	-11.434
aries	-11.434
बिर	-11.4341
▁एन्जल्स	-11.4341
रेन्स	-11.4342
राजधानी	-11.4342
Wa	-11.4342
▁व्याज	-11.4342
उद्योग	-11.4343
▁मार्टिन	-11.4345
▁happening	-11.4347
satya	-11.4347
▁suspension	-11.435
▁घोषित	-11.435
▁४९	-11.435
हम	-11.4351
▁willing	-11.4351
▁Rajendra	-11.4352
hau	-11.4353
▁उद्योगमा	-11.4354
cade	-11.4354
▁पारि	-11.4354
dale	-11.4356
▁हतार	-11.4357
ement	-11.4358
विद्यार्थी	-11.4359
▁पाउण्ड	-11.4361
▁Capital	-11.4361
Ri	-11.4362
liber	-11.4363
ाकी	-11.4364
▁पहेंलो	-11.4364
▁factors	-11.4365
हवा	-11.4365
▁बरामद	-11.4366
▁अफ्रिकी	-11.4366
र्श	-11.4367
इक	-11.4368
▁परम	-11.4368
समेतको	-11.437
▁efficiency	-11.4374
▁allows	-11.4375
ुट	-11.4376
HA	-11.4376
▁agreements	-11.4377
▁कठिनाइ	-11.4379
▁reforms	-11.438
▁construct	-11.438
fle	-11.438
AM	-11.4381
▁प्रशासक	-11.4382
▁fought	-11.4382
विद्युत	-11.4383
▁portion	-11.4383
vil	-11.4385
ett	-11.4386
▁journalism	-11.439
▁सहन	-11.4391
sala	-11.4391
budha	-11.4392
धो	-11.4394
uki	-11.4394
▁पथ	-11.4395
▁kids	-11.4396
▁क्लि	-11.4396
▁protecting	-11.4396
▁aggressive	-11.4398
▁contrary	-11.4399
ह्	-11.4401
▁percentage	-11.4401
▁हेर्नु	-11.4401
ाइस	-11.4402
samiti	-11.4403
फ्रे	-11.4404
▁टाइ	-11.4404
काठमाडौँ	-11.4408
रेस	-11.4408
त्यसबेला	-11.441
Yet	-11.441
▁attracted	-11.4413
कृपया	-11.4416
एमसी	-11.4416
▁printing	-11.4417
▁convinced	-11.4418
▁प्रस्ट	-11.4419
▁इन्जिनियरिङ	-11.4419
▁सम्भवतः	-11.4421
▁rebels	-11.4422
ूल	-11.4422
mol	-11.4424
बढी	-11.4426
ाट	-11.4429
सौ	-11.4429
▁Shar	-11.443
▁comfortable	-11.4432
▁slave	-11.4432
विपरीत	-11.4432
▁७ग्अष्चअस	-11.4433
सदस्य	-11.4434
▁consultant	-11.4434
▁connecting	-11.4434
▁दक्षता	-11.4434
हुन्छ	-11.4435
diko	-11.4436
स्टिक	-11.4439
▁जाऊ	-11.4439
▁भग	-11.4439
▁आरोहण	-11.4439
ुद	-11.4439
भरी	-11.444
Notwithstanding	-11.444
किशोर	-11.4441
Car	-11.4441
bahekka	-11.4442
▁निक	-11.4442
chun	-11.4443
बक्स	-11.4445
▁त्य	-11.4445
▁pointed	-11.4446
▁Far	-11.4447
▁displaced	-11.4447
जंग	-11.4447
▁Sunsari	-11.4448
related	-11.4449
▁जरा	-11.445
khani	-11.4452
▁collapse	-11.4454
▁निकायका	-11.4455
▁स्थायित्व	-11.4455
▁मिल्दैन	-11.4456
▁estate	-11.4457
▁टोक	-11.4457
्दि	-11.4458
▁Agency	-11.4458
▁Lake	-11.4459
▁४७	-11.446
▁postal	-11.4462
five	-11.4462
ग्ला	-11.4463
yon	-11.4463
mina	-11.4465
sagar	-11.4465
हरूकै	-11.4465
▁एमालेले	-11.4466
मिस	-11.4467
सम्मै	-11.4467
ीक	-11.4469
वन्ध	-11.447
▁sufficient	-11.4471
ालो	-11.4471
ोनले	-11.4474
हजार	-11.4474
▁welcomed	-11.4475
oj	-11.4476
rasa	-11.4477
kap	-11.4479
▁Ze	-11.4479
▁अडियो	-11.448
31	-11.4481
▁भएँ	-11.4481
▁Test	-11.4482
▁आरोपमा	-11.4483
▁सकेसम्म	-11.4483
▁lock	-11.4488
▁बहुदलीय	-11.4489
surya	-11.4491
Qu	-11.4492
▁झार	-11.4493
▁समतल	-11.4498
▁बढ्छ	-11.4498
▁trail	-11.4498
▁criticized	-11.4499
▁strengthened	-11.4499
neharu	-11.45
Look	-11.4501
dub	-11.4501
▁मान्ने	-11.4501
प्रदेश	-11.4502
▁बेवास्ता	-11.4505
bun	-11.4505
▁alarm	-11.4506
▁Eastern	-11.4507
ddhi	-11.4507
▁सहयोगको	-11.4508
जिक	-11.4509
▁अक्स	-11.4511
▁coffee	-11.4513
▁दाखरस	-11.4513
▁Canada	-11.4513
प्रतिवेदन	-11.4516
▁विज्ञप्ति	-11.4516
ि्र	-11.4517
▁बरु	-11.4518
तका	-11.4519
ैन	-11.4519
▁प्रयोगमा	-11.452
▁crop	-11.4521
दले	-11.4521
▁Global	-11.4521
▁sustain	-11.4525
▁उत्साहित	-11.4525
▁परमप्रभुलाई	-11.4526
bhut	-11.4528
▁cooperative	-11.4528
▁चर्क	-11.4529
▁crash	-11.4529
▁confirm	-11.4533
गण	-11.4534
▁अप्	-11.4534
▁प्रस	-11.4536
lis	-11.4536
निर	-11.4537
▁Neupane	-11.4538
▁पाहुना	-11.4538
टोली	-11.4538
▁Black	-11.454
ावस्था	-11.4543
▁aimed	-11.4544
▁पठाइ	-11.4544
▁participants	-11.4545
गति	-11.4546
trans	-11.4547
yug	-11.4548
alo	-11.4548
हत	-11.455
▁ट्रा	-11.4551
▁सीमान्त	-11.4552
▁boys	-11.4554
▁Rajbiraj	-11.4554
▁आप	-11.4554
ेछ	-11.4555
▁Tibet	-11.4556
▁भोग्नु	-11.4558
ica	-11.4558
रहेछ	-11.4562
▁दलले	-11.4562
वत्	-11.4563
शायद	-11.4564
▁चुक	-11.4565
रुवा	-11.4565
सत्य	-11.4565
क्षेत्रमा	-11.4565
▁नग	-11.4565
▁cycle	-11.4566
▁web	-11.4566
इम	-11.4567
▁alert	-11.4567
▁टावर	-11.4568
▁Book	-11.4569
▁लिइ	-11.457
▁झो	-11.457
▁अपराधी	-11.4571
[...]
